/**
  ******************************************************************************
  * @file    network_data_params.c
  * @author  AST Embedded Analytics Research Platform
  * @date    Tue Jan 13 20:29:14 2026
  * @brief   AI Tool Automatic Code Generator for Embedded NN computing
  ******************************************************************************
  * Copyright (c) 2026 STMicroelectronics.
  * All rights reserved.
  *
  * This software is licensed under terms that can be found in the LICENSE file
  * in the root directory of this software component.
  * If no LICENSE file comes with this software, it is provided AS-IS.
  ******************************************************************************
  */

#include "network_data_params.h"


/**  Activations Section  ****************************************************/
ai_handle g_network_activations_table[1 + 2] = {
  AI_HANDLE_PTR(AI_MAGIC_MARKER),
  AI_HANDLE_PTR(NULL),
  AI_HANDLE_PTR(AI_MAGIC_MARKER),
};




/**  Weights Section  ********************************************************/
AI_ALIGNED(32)
const ai_u64 s_network_weights_array_u64[2987] = {
  0x3e93c5cb3ec646f6U, 0xbe0a6b80bdbb0dd0U, 0x3e4646f63e58fb8bU, 0xbe58fb8bbd9d2015U,
  0x3eed8efb3db39261U, 0xbe5cb942bd15a4a6U, 0x3e4646f6bd51801cU, 0xbe900813bd42893fU,
  0x3ed71cafbd9d2015U, 0xbe3ecb87bcb39261U, 0x3da49b843d42893fU, 0xbea8593bbd15a4a6U,
  0x3e95a4a63bef6dd7U, 0xbe375019bdd8fb8bU, 0xbd42893f3e19625eU, 0xbe0a6b80bd51801cU,
  0xbe28593b3dca04adU, 0x3d51801cbe2c16f3U, 0xbeaa38173dd8fb8bU, 0x3db392613d42893fU,
  0x3e6408613e30136fU, 0xbde12570be66eb52U, 0x3db8bc423e2487abU, 0xbde6eb52be32f660U,
  0xbd5b5f8e3df83cf9U, 0xbe2487abbd21a4baU, 0x3cb8bc423d2d307eU, 0xbe1618f63ca1a4baU,
  0xbc38bc42bd0a8d32U, 0xbde125703d444806U, 0x3d4fd3cabd0a8d32U, 0xbddb5f8e3cb8bc42U,
  0x3e1bded8bd21a4baU, 0xbe133605bd905314U, 0x3e7e02dbbd84c74fU, 0xbda76a9c3da76a9cU,
  0x3e9ec1c9bdb2f660U, 0x3decb135bd9618f6U, 0x3eb184e7be35d951U, 0x3e9a6d5f3eb74ac9U,
  0xbe785138bdb06f9aU, 0xbc511bf93ebd815aU, 0xbe85f5ecbe235ddbU, 0xbc511bf93deb3f78U,
  0xbe3a3ceabe1307abU, 0xbceb3f78bc82b17cU, 0xbdf851383db6f87aU, 0xbda9e6babc82b17cU,
  0xbdb6f87a3de4b698U, 0xbe093a5b3b511bf9U, 0x3bd11bf93e29e6baU, 0xbdca9319bd785138U,
  0x3d440a393e1cd4fbU, 0xbe164c1b3deb3f78U, 0x3e750cc83d9cd4fbU, 0xbdde2db9bc511bf9U,
  0x3e85f5ec3e26a24aU, 0xbdde2db9bdeb3f78U, 0x3ecf79c13da35ddbU, 0xbe3d815abe71c858U,
  0xbe58f185bdffe1cbU, 0xbdd3617bbf29a930U, 0x3e58f185bd9bc117U, 0x3e7a51c1bd484167U,
  0x3ec84167bd32013fU, 0x3e9e891c3edbb98aU, 0x3ef1f9b23cb2013fU, 0x3e16310d3f309d3dU,
  0x3ea9a9303db2013fU, 0x3e26e12b3f2dd538U, 0x3df4c1b73dffe1cbU, 0xbd1bc1173e82b8eaU,
  0xbe9bc1173dd3617bU, 0x3bb2013fbe10a103U, 0xbeb4c9443d5e818fU, 0xbdffe1cbbebd2153U,
  0xbe9bc117bc8580efU, 0xbe3d2153bec84167U, 0xbe32013fbdb2013fU, 0xbdc84167be9bc117U,
  0xbecbe48fbd99e1a1U, 0x3d480bb8be8c6ab0U, 0xbeb0f6adbe02cc96U, 0x3e0e571cbe34cf84U,
  0xbdfde77dbe4432e1U, 0x3e0a7e443e6aab49U, 0x3c38a85bbddf20c4U, 0xbb7635cf3ef44963U,
  0x3e4fbd673d0a7e44U, 0xbdee84213ecdd0fbU, 0x3e405a0a3dfde77dU, 0xbe576f153df635cfU,
  0x3e8a7e443e53963eU, 0xbd576f15bda19350U, 0x3e2193503e7de77dU, 0xbc38a85bbe38a85bU,
  0x3d576f153e1dba79U, 0x3db0f6adbe4432e1U, 0x3e19e1a1bd19e1a1U, 0x3bf635cfbdfde77dU,
  0x3ca2f0abbd22f0abU, 0xbe22f0ab3f21aacaU, 0xbe897b103d4bacd6U, 0x3dcbacd63eea39f6U,
  0xbedd7f283d4bacd6U, 0x3e4bacd6bca2f0abU, 0xbedaf3663dad1fb6U, 0x3ece3898be417dcbU,
  0xbe81d7c83d98c1a0U, 0x3eaa93f3beaa93f3U, 0xbda2f0abbc22f0abU, 0x3e4bacd6bea57c6eU,
  0x3de00aebbd22f0abU, 0xbe9dd926U, 0x3e4bacd63c22f0abU, 0xbd84638bbdad1fb6U,
  0x3e911e58bd84638bU, 0xbe4695503dc17dcbU, 0x3ebc6646bdb74ec0U, 0xbea57c6e3eb4c2feU,
  0xbbd8a1eebdd8a1eeU, 0x3e1f16ebbeb879e5U, 0x3d94ef54bd3d8db0U, 0x3d80a025bdf3b62cU,
  0x3d876535bda93e82U, 0x3e1851db3e0e2a44U, 0x3d58a1eebd4b17cfU, 0x3dfa7b3b3ea42ab6U,
  0xbd73b62c3c58a1eeU, 0x3e7053a43eccc913U, 0xbcd8a1ee3e300391U, 0x3e00a0253dfa7b3bU,
  0x3dd1dcdf3e80a025U, 0x3e3003913e3a2b29U, 0x3bd8a1ee3e5c0476U, 0xbe0e2a44bd94ef54U,
  0xbdecf11cbca27972U, 0xbed6f0aabe9bb463U, 0xbdcb17cfbe40f038U, 0xbeb00391be4b17cfU,
  0xbde44ea400000000U, 0xbed02995be0d0365U, 0x3c56e09a3d212874U, 0xbed532d9bd9a716fU,
  0xbe71bcad3e46170eU, 0xbe7f2ab7be02f0deU, 0xbe60f3213e3c0487U, 0xbe2e967dbe1a716fU,
  0xbdff2ab73e27df78U, 0xbe105ee7bd8d0365U, 0xbe09a7e33d71bcadU, 0xbdb54d82be42bb8cU,
  0xbe27df783d8d0365U, 0x3d4972903c212874U, 0xbd93ba6abd8d0365U, 0x3e46170ebe064c60U,
  0x3e42bb8c3d3c0487U, 0x3e13ba6a3d93ba6aU, 0x3e9c1f30bd212874U, 0x3e905ee73e1715ecU,
  0xbeca8085bd721247U, 0x3ec82ca73e14f78eU, 0x3d5f7355bdfb61c0U, 0x3f13cd9f00000000U,
  0x3e7b61c0be14f78eU, 0x3f1179c13da79680U, 0x3eb58db5bd94f78eU, 0x3e82589c3d5f7355U,
  0x3e974b6c3cba3572U, 0x3e22eec33cdf7355U, 0x3e8700593d3a3572U, 0xbe4cd463be0ba815U,
  0x3cdf73553dfb61c0U, 0xbebc89503c14f78eU, 0xbd7212473e22eec3U, 0xbea79680bdd623dcU,
  0xbe517c203dfb61c0U, 0xbedd1f77bd14f78eU, 0xbe3edd2ebc14f78eU, 0xbe94f78e3b94f78eU,
  0x3c910c3abc910c3aU, 0xbe37e65bbe76102bU, 0x3e2d8a0e3ba5c4d4U, 0xbba5c4d4bdca07e2U,
  0x3e4c9ef63ca5c4d4U, 0x3e3021213e4242a8U, 0x3de91ccabd8181c6U, 0x3e5ec07d3e56fb43U,
  0xbd8bde13bda096adU, 0xbc4f36093e7b3e51U, 0xbe354f48be0bde13U, 0x3e2096ad3e32b835U,
  0xbdf8a73ebd1b6887U, 0xbddec07d3e82cd4fU, 0xbde91cca3d302121U, 0x3d9b68873e354f48U,
  0xbd86afec3e0418d9U, 0xbe3d14823e93a34dU, 0xbe110c3a3dd99256U, 0xbea4794a3da096adU,
  0xbdbe1dde3e4ee444U, 0x3dd47bbcbeb18911U, 0xbe3b52223e51b000U, 0x3e82019a00000000U,
  0xbe8367783dead99aU, 0x3c9c91113e6ad99aU, 0xbe942dde3d809bbcU, 0x3e7071113e760889U,
  0xbe494ccdbd863333U, 0xbc32eeef3e96f99aU, 0xbcdfaaabbe494ccdU, 0xbdf071113e8d3089U,
  0x3e494ccdbe6ad99aU, 0xbe9f5ccd3e707111U, 0x3e627666bd547bbcU, 0xbdcee444bbb2eeefU,
  0x3e5cdeefbd32eeefU, 0xbd863333be707111U, 0x3e8a64cd3d96f99aU, 0xbbb2eeefbe88feefU,
  0x3e80b4abbdcb075dU, 0x3e72e8cfbd7688f1U, 0x3e8454ccbdb54693U, 0x3d7688f100000000U,
  0x3e7a2912be14a564U, 0xbe9a15963e2325ebU, 0x3c68086abd8284bcU, 0xbe7a29123e6ba88cU,
  0xbe87f4eebdbc86d6U, 0xbe0624dd3e89c4ffU, 0xbedef8163d89c4ffU, 0x3dd987e33e354693U,
  0xbeae06503d110542U, 0x3ee638593dd247a0U, 0xbe2a662e3e2a662eU, 0x3e72e8cfbe09c4ffU,
  0x3c2e06503e110542U, 0x3d7688f1bdbc86d6U, 0x3e5d28053e110542U, 0xbd9f85c9be8f3531U,
  0xbe1dc2993f076011U, 0xbe2649a83e042d6bU, 0xbe864f2f3e820ba8U, 0xbd3b9b4ebd7fd3c8U,
  0xbe90f8023d8870f3U, 0xbd3b9b4ebe2a8d30U, 0xbe7b9040bdbb9b4eU, 0x3de63e9a3db3143fU,
  0xbceec5a9be730931U, 0x3e1dc2993d7fd3c8U, 0x3d197f11be2ed0b7U, 0x3e9319c63e9fe45dU,
  0x3e820ba8be663e9aU, 0xbc8870f33d90f802U, 0x3e153b8abdf74cb8U, 0x3d3b9b4ebd0870f3U,
  0x3e9319c63e0cb47bU, 0xbdd5307cbe220621U, 0x3ea86b6c3e0870f3U, 0xbdc4225dbe33143fU,
  0xbe27402ebd0a0c57U, 0x3d49c343be34864aU, 0xbe0f5b95bd34864aU, 0xbce99ebabe372de9U,
  0xbe6c4659bbfedbb4U, 0xbd9f4950be51ba21U, 0xbe57095fbcfedbb4U, 0xbe821579bd14aad3U,
  0xbe3c7d27bd49c343U, 0xbe98a642bd743d37U, 0xbdd9b0ff3c29e7cdU, 0xbea1f0ef3e24988fU,
  0xbe31deab3c5461c0U, 0xbe31deab3ce99ebaU, 0xbea893fdbd94aad3U, 0xbe76e4d6bd5461c0U,
  0xbdf98c75bd3f24c7U, 0xbd94aad3bca9e7cdU, 0xbe24988fbd94aad3U, 0xbdd9b0ffbcbf24c7U,
  0xbe8bcc69be84cefdU, 0xbeb5bcefbe8bcc69U, 0xbe072377be4860b9U, 0xbe27c218beba65e2U,
  0x3d027a84bc5fad75U, 0xbdc3b7c6be3a65e2U, 0x3df2513f3e072377U, 0xbc951e4ebdf2513fU,
  0x3b951e4e3dd65b90U, 0xbe231925bd9e7033U, 0x3e0723773dcd09abU, 0xbb951e4e3d3a65e2U,
  0x3dcd09abbc151e4eU, 0x3d8bcc693e027a84U, 0x3e35bcef3dcd09abU, 0x3d3a65e23e8bcc69U,
  0x3cdfad753d5fad75U, 0xbcdfad753edfad75U, 0x3dc3b7c63e4d09abU, 0xbe6da84c3f13f411U,
  0xbe8f41be3e2a751cU, 0x3dfddf71bbe81cbfU, 0xbe4037ce3d9111f7U, 0x3e2e158f3d769e8bU,
  0x3d1111f73dcb1927U, 0x3e55fa803e846065U, 0xbe7ddf713c9111f7U, 0x3edf0ba03e8800d8U,
  0xbe86309ebc2e158fU, 0x3ec208083e8800d8U, 0xbe8ba14b3be81cbfU, 0x3eaa751c3dae158fU,
  0xbdfddf71bd89d111U, 0x3d769e8b3e1852ddU, 0xbc2e158fbd9111f7U, 0xbd1f93c3bd1111f7U,
  0x3ea50470bd82902bU, 0xbe92e231bd681cbfU, 0x3ecce961bdef5da5U, 0xbee64c86bde0dbd9U,
  0xbe72e832bdd6a979U, 0xbf335b13U, 0xbe5c4f9e3e61f5c3U, 0xbe1885e4bf335b13U,
  0xbe3a6ac13ea0ff1bU, 0xbbb4c49cbea0ff1bU, 0xbd34c49c3e879375U, 0xbd788e56be84c063U,
  0x3e81ed503e2f1e77U, 0xbcb4c49cbd61f5c3U, 0x3de1f5c3bc34c49cU, 0xbda978523d4b5d30U,
  0x3e1885e4bdcb5d30U, 0xbd92dfbf3e5c4f9eU, 0xbc879375be23d22dU, 0x3e3a6ac13e510354U,
  0xbe0d399a3d788e56U, 0x3e01ed503eb797aeU, 0x3bb4c49c3de1f5c3U, 0x3e8d399a3e81ed50U,
  0xbef530743c59f22eU, 0x3d914c1fbec0f919U, 0xbebeb3e93c59f22eU, 0x3ed9f22ebe8167ccU,
  0xbef775a5bb914c1fU, 0x3f102987bcb59f27U, 0xbe8167cc3b914c1fU, 0x3e7530743eaa4534U,
  0xbd47c8abbb914c1fU, 0x3e5567ce3e88375dU, 0xbd914c1f3d9a60e1U, 0xbe359f273f04cf94U,
  0xbe3a29883d88375dU, 0xbd88375d3eaa4534U, 0xbcfe45363cd9f22eU, 0xbe8a7c8e3eb359f6U,
  0xbd914c1fbd88375dU, 0xbeac8a653de306f0U, 0x3cfe4536bda375a3U, 0xbeee60e3bdc7c8abU,
  0x3da6d83b3e07f28fU, 0xbebc7900bc144e6dU, 0xbdb962093e1a7c5cU, 0xbe98f0e1bd772d61U,
  0x3d81c4a03d944e6dU, 0xbe4bebd63b45bde7U, 0x3dc5bde73d2d062aU, 0xbd07f28f3d396209U,
  0x3e3c7900bdf0ff72U, 0x3dcbebd63db33419U, 0x3dc5bde7be01c4a0U, 0x3df0ff723e4f02ceU,
  0xbd5e75a4bea0aa4cU, 0x3e23c1433e4bebd6U, 0xbe0e207ebe0b0986U, 0x3e7d5b503dfd5b50U,
  0xbe64a393bb45bde7U, 0x3e7416693dead182U, 0xbe95d9e93e48d4dfU, 0x3ec4326b3e04db97U,
  0xbe0764cb3e0b7f1eU, 0x3d762b9f3db48664U, 0x3e7a45f33d034a77U, 0x3da41d153ebaade1U,
  0x3e8971f5bd241d15U, 0x3f0243e23e306c10U, 0x3d555901be513eaeU, 0x3e3cbb0b3dfe6047U,
  0xbdbcbb0bbe44efb2U, 0x3e69dca4be2c51bcU, 0xbec0d55fbd93b3c6U, 0x3d762b9fbea62a3fU,
  0xbe91a69c3d8b7f1eU, 0xbe834a77be72114bU, 0x3e13b3c6U, 0xbe348664be0f9972U,
  0x3e44efb23d834a77U, 0xbe490a063c44efb2U, 0x3e490a063dfe6047U, 0xbdedf6f83dcd245aU,
  0x3ed21fecbd9a9312U, 0xbe15be793e1f67abU, 0x3eade5743d1a9312U, 0xbe7185ccbd90e9e1U,
  0x3d9a93123d2de574U, 0xbc67dc9bbeb04fc1U, 0x3c67dc9b3dde336aU, 0x3dde336abecd4b54U,
  0xbe0740b03d548a39U, 0x3df185ccbeef1b80U, 0xbe93542d3d4137d6U, 0x3e8e7f95be4ae108U,
  0xbe3c633e3d67dc9bU, 0x3dde336a3db78ea5U, 0xbe4fb5a0bd2de574U, 0x3de7dc9b3ebecd8aU,
  0xbd548a39bd1a9312U, 0xbd0740b03f195decU, 0x3e0740b0be10e9e1U, 0xbe243c433e8001cbU,
  0x3d8e81173dc78187U, 0xbf6239bcbec3f180U, 0x3cab014f3be401bfU, 0xbf15a125be478187U,
  0x3e7241db3e55c1a3U, 0xbd9cc1333e6b21cdU, 0x3e0040fbbdf241dbU, 0x3c6401bf3e7961e9U,
  0xbe0761093d2b014fU, 0x3db9416b3e32215dU, 0xbd8e8117U, 0x3e32215d3e0040fbU,
  0x3be401bfbdb9416bU, 0x3dc781873e55c1a3U, 0x3e39416b3e92111eU, 0x3d6401bf00000000U,
  0x3e92111e3df241dbU, 0xbdb9416b3e15a125U, 0x3e5ce1b13e076109U, 0xbd4781873e39416bU,
  0x3e1bdf443e7069b7U, 0x3e23cc3fbd535a20U, 0x3e3b932f3e017400U, 0x3de334153da914e6U,
  0x3dc8c8d1bd13f249U, 0x3e06bca7bb2914e6U, 0x3d8ea9a2be535a20U, 0x3d8ea9a2bcfd9f59U,
  0x3d5deb6ebe2127ebU, 0x3c2914e6be1e8398U, 0x3d13f249be3101e1U, 0x3b2914e6bd841854U,
  0xbdc8c8d1bd48c8d1U, 0xbe0c054e3d48c8d1U, 0xbe7856b2bdf856b2U, 0xbe0c054e3c2914e6U,
  0xbd9e8398bdb3a634U, 0xbea7c2bc3e97e8c7U, 0xbe0418543cfd9f59U, 0xbe40dbd63e1bdf44U,
  0xbd83318e3da6f941U, 0x3e2cefdfbf3d5611U, 0xbe26f9413da6f941U, 0xbeafeb2ebf109c71U,
  0xbde29b6a3de29b6aU, 0xbd83318ebf062cddU, 0xbbbed3b83dfa75e2U, 0xbd9b0c06bdd6ae2fU,
  0x3dbed3b83c3ed3b8U, 0x3e3ed3b8be6e88a6U, 0x3e50b7913cbed3b8U, 0x3dcac0f43dd6ae2fU,
  0x3d8f1ecabda6f941U, 0x3e9e07543bbed3b8U, 0x3e32e67cbdbed3b8U, 0x3e03318e3e50b791U,
  0x3d26f941bdee88a6U, 0xbd8f1eca3e629b6aU, 0x3c3ed3b8bdcac0f4U, 0xbe38dd1a3ed0b791U,
  0x3ecfabc93e180b7dU, 0xbd0580b8be40d660U, 0x3e8580b83e3d2105U, 0x3ccfabc9bda32b8cU,
  0xbd1456223e35b650U, 0xbd40d6603d8580b8U, 0xbd8580b83e232b8cU, 0xbe180b7d3e180b7dU,
  0xbe26e0e63dc84114U, 0xbc9456223e6d569dU, 0xbe180b7d3d40d660U, 0x3d40d6603eca1bc2U,
  0xbe35b650bd0580b8U, 0x3d8580b83eeb7bf0U, 0xbe35b650be1bc0d7U, 0x3d1456223e8b10c0U,
  0xbe180b7dbe180b7dU, 0xbe5e81333dde8133U, 0xbe536124be448bbaU, 0xbe093613be4fabc9U,
  0xbe3bfc67be5b5123U, 0xbedb5123be537bf4U, 0xbde326523d9ca7abU, 0xbe2c5209be6710eaU,
  0x3d7aa5df3e98bd14U, 0xbd8cfd4dbe7e9076U, 0x3e8cfd4d3e9ab260U, 0x3d2c5209be90e7e5U,
  0x3ecba6c53e9e9cf7U, 0x3d9ca7abbe6710eaU, 0x3ef8b0933e632652U, 0x3e2c52093cdb5123U,
  0x3e8912b6bd85281eU, 0x3b7aa5df3dbbfc67U, 0xbd4ba6c5be209243U, 0x3dac52093ea47cdaU,
  0xbe8ef299be8332d3U, 0x3d7aa5df3e0cfd4dU, 0xbea67226be013d87U, 0x3b7aa5df3dfaa5dfU,
  0xbde499ee3cba9d01U, 0xbe89a0973e8620d9U, 0xbe09a097be19f4baU, 0xbe6244c43e4af124U,
  0xbe09a097bdbf4754U, 0xbb954a673e92f53dU, 0x3bdfef9a3dc3f1a7U, 0x3d0bf5c13e6244c4U,
  0xbd4d464e3e3f4754U, 0x3e77433b3d7298e7U, 0x3e3a9d013e74ee11U, 0x3e074b6dbc954a67U,
  0x3e259e8a3db5f2aeU, 0x3e7298e7be09a097U, 0x3e12f53d3e339d84U, 0x3de499eebe1c49e4U,
  0xbda7f3b4bdba9d01U, 0x3ddb4547be27f3b4U, 0xbe7298e7be09a097U, 0x3c82a11abe941fd2U,
  0x3e4c4bb3bbc0473fU, 0x3cf0590f3eab3f74U, 0x3df0590f3c40473fU, 0x3e43485c3ea6bdc9U,
  0xbdb442cb3e70590fU, 0xbdd24dedbe3d4622U, 0xbe61537e3e9f3b00U, 0xbdf0590fbe9637a9U,
  0xbe85b18a3eafc120U, 0xbe0430fbbebec6b1U, 0xbe0d34523da83e57U, 0x3ca83e57be85b18aU,
  0xbe7c5d833df0590fU, 0x3d1c39e33d1c39e3U, 0xbc40473fbe765b49U, 0x3e82b06d3bc0473fU,
  0xbc90356fbe1f3b00U, 0x3db442cb3bc0473fU, 0x3e6755b8beba4505U, 0xbd283e57bd64549bU,
  0x3e27341c3ed6f9dcU, 0xbed95d58be654ec8U, 0x3db589093d8f513dU, 0xbeb58909beb58909U,
  0xbe5bc0d5bdd232e2U, 0xbe98df30beba5002U, 0xbd05c34abd654ec8U, 0xbd85c34abea99799U,
  0xbd98df30bde54ec8U, 0x3d654ec8bd8f513dU, 0x3b98df30bb98df30U, 0xbd85c34abdabfb16U,
  0x3d3f16fcbd654ec8U, 0xbc18df303e5232e2U, 0xbdb58909bdabfb16U, 0x3ddbc0d53deedcbbU,
  0x3d2bfb1600000000U, 0x3e8826c73e8826c7U, 0x3da26d233e43ddf6U, 0x3f17ad723e56f9dcU,
  0x3d1b374a3c3f08f9U, 0xbea12f923e3f08f9U, 0x3ceecb373e71c75bU, 0xbeaa23febd894e73U,
  0x3ebd8ae7U, 0xbeb19a57be3f08f9U, 0xbd1b374a3e8c4a97U, 0xbdd0f1d0bda727daU,
  0x3d56ea183e50f1d0U, 0x3dad2022bceecb37U, 0x3d9b374a3dad2022U, 0x3e5ce2603eba8ec3U,
  0x3db31869bdc50141U, 0x3e7abbc73e1b374aU, 0xbd83562bbe6bcf13U, 0x3e62daa83e5fde84U,
  0xbe62daa8bebc0cd5U, 0x3d9b374abdd0f1d0U, 0xbe7db7ebbea5a9c8U, 0x3d894e73bdeecb37U,
  0xbebe9a3bbeb04eaaU, 0xbdf16e07be253055U, 0xbec9b890bdd80421U, 0xbe580421bdde5e9aU,
  0xbd4b4f2ebd4b4f2eU, 0x3dd80421bd8bc670U, 0xbc187b623ccb4f2eU, 0x3da530553e64b914U,
  0x3e77c8803e4e7c6bU, 0x3d3e9a3bbe0ef3acU, 0x3e1ed5dc3e8ef3acU, 0x3e716e07be1ed5dcU,
  0x3df7c8803cfe22faU, 0x3e580421be0bc670U, 0xbd187b623d987b62U, 0x3c987b62bcb1e548U,
  0xbe1220e93e023eb9U, 0x3e7e22fa3e220319U, 0xbea399b73e383fc2U, 0xbe2203193e3b6cfeU,
  0x3e4e27983d172e1aU, 0xbdf083863e406938U, 0x3e8600233dc06938U, 0x3e51972f3ecfdf63U,
  0x3e24ec793d7762b6U, 0x3e9c557e3eda2e2bU, 0xbca4ec793d4e2798U, 0x3e5506c73ec74868U,
  0xbe285c11bd4e2798U, 0x3e172e1a3dd506c7U, 0xbdabcba9bd172e1aU, 0x3e2bcba9bd406938U,
  0xbdfe41e6bc24ec79U, 0x3c5be5f7be860023U, 0xbdb2aad93cf762b6U, 0xbd32aad9bea85c11U,
  0x3cc06938bca4ec79U, 0xbe43d8d0be9206b6U, 0xbdabcba9bde9a456U, 0xbea6a445bdfe41e6U,
  0xbf0b64b4bcc72225U, 0x3ea448f83ebd2d3dU, 0xbeabc0a6bd9f4e84U, 0x3ee283a43db33854U,
  0xbe97d6d6bd0b64b4U, 0x3eae3de0bc9f4e84U, 0xbc1f4e84bd472225U, 0xbdc72225be2e3de0U,
  0x3ceef5c6bc6ef5c6U, 0xbd6ef5c600000000U, 0x3db338543c1f4e84U, 0xbed394473e3832c9U,
  0x3cc722253ceef5c6U, 0xbe1f4e843e1f4e84U, 0xbceef5c63ceef5c6U, 0x3d816fcb3e9cd14aU,
  0xbe6500de3d0b64b4U, 0x3ea6c6323ec227b1U, 0xbe6ef5c63da9436cU, 0x3ee9fb523f1e0fe7U,
  0xbe19978fbebddb58U, 0xbf0775abbd910f24U, 0xbdeeebc2be3330d2U, 0xbeeeebc2bd5ddaebU,
  0xbd19978fbc4cca14U, 0xbe2eec9cbe4441a8U, 0x3dfffc993d2aa866U, 0xbdf7742ebdf7742eU,
  0x3ea664303e19978fU, 0x3d3bb93dbdd55280U, 0x3ea21ffa3dccca14U, 0x3deeebc2bd4cca14U,
  0x3e3775073e555280U, 0x3e110f243cccca14U, 0x3ceeebc23d2aa866U, 0x3c4cca143d3bb93dU,
  0x3e0442823eaaa866U, 0x3e2664303e266430U, 0x3d8886b83e666356U, 0x3e6663563e6eebc2U,
  0xbe7959afbea6e763U, 0x3d90c8b8be10c8b8U, 0xbd20df06bd90c8b8U, 0x3d20df06bd98d3dfU,
  0xbd410ba03d714e89U, 0x3dc916c7be08bd92U, 0x3e24e4993e410ba0U, 0x3e1cd97200000000U,
  0x3e61383b3ea0df06U, 0x3de1383b3de1383bU, 0x3ce1383b3e2cefc0U, 0x3b80b26b3cc10ba0U,
  0x3dc916c73dc916c7U, 0xbe4916c7bd98d3dfU, 0xbd10c8b83dd92d15U, 0xbe2cefc0bd61383bU,
  0x3d98d3df3c410ba0U, 0xbeb2f81dbe10c8b8U, 0x3db9007abdc10ba0U, 0xbeff620cbd30f553U,
  0x3e8c8a11bf547b69U, 0xbef4454ebe85d8d3U, 0x3e933b4ebf00d3e5U, 0xbe828034be5cd8f6U,
  0x3eb158e4be638a34U, 0xbea3f669be5627b8U, 0xbe2e00463d05d8d3U, 0xbe9d452bbe638a34U,
  0xbbd627b8bc5627b8U, 0xbe6a3b713e274f08U, 0xbe05d8d3bde38a34U, 0xbd70ecafbde38a34U,
  0x3e274f083dd627b8U, 0xbe3b62c13e209dcaU, 0x3ec213ff3e638a34U, 0xbd933b4e3e638a34U,
  0x3d209dca3e8c8a11U, 0x3ec56c9e3ea74f08U, 0xbe7e4f2a3f0c8a11U, 0x3ecc1ddb3ec56c9eU,
  0xbcd6e6eebe8dfd26U, 0xbdb086d53eefd897U, 0x3d664091be3c0a10U, 0xbdcf3a1c3dbfe079U,
  0xbc3833a7bdfd4706U, 0x3dfd4706be2cb06dU, 0x3e1d56c900000000U, 0x3d91d38fbdbfe079U,
  0xbd664091bc998060U, 0x3e5abd563c3833a7U, 0x3c759a34bda8da04U, 0xbb759a3400000000U,
  0xbe11d38fbd0a26bdU, 0xbd1980603cb833a7U, 0xbd3833a73d478d4aU, 0x3d8279ecbd198060U,
  0xbd8279ec3e8a26bdU, 0x3cf59a34bdcf3a1cU, 0xbe2cb06d3ef3af00U, 0x3deded62bc759a34U,
  0xbe089fa13e34183eU, 0xbd53253f3dd3253fU, 0xbe4083d83dfe9ddbU, 0xbe089fa13d3a4e0bU,
  0xbe8269d43d889fa1U, 0xbe595b0c3e8a2d15U, 0xbe6bfc743d78680eU, 0xbe4083d83e27aca3U,
  0xbe53253fbd089fa1U, 0xbea491bd3c950b3cU, 0xbe27aca33c150b3cU, 0xbda7aca3bd5f90daU,
  0x3d150b3cbc46b9a5U, 0xbd8269d4U, 0x3e5c75f33c46b9a5U, 0x3e8bba88be439ebeU,
  0x3e9062e2bda176d6U, 0x3da7aca3beb0fd57U, 0x3ec52c32be373324U, 0x3d150b3cbe8ed56fU,
  0x3e5999c63e866682U, 0xbdf0a4093df5c2c2U, 0x3e30a3fb3de147dcU, 0xbe3d70cb3e95c2aeU,
  0x3d428f84bd0f5c46U, 0xbe28f5e53e147b00U, 0xbda3d72cbdd1ebb0U, 0xbd8f5c463e63d739U,
  0xbcb85212be0ccceaU, 0x3d1999b93dfae17bU, 0xbe5c2923be28f5e5U, 0x3d9999b9be0a3d8dU,
  0xbe666696be11eba3U, 0x3d428f843ca3d72cU, 0xbea28f7e3cccccf7U, 0x3db33358be428f84U,
  0xbe91eba33d2e149fU, 0x3c4cccf7bbf5c2c2U, 0xbdfae17b3da8f5e5U, 0x3c23d72cbdfae17bU,
  0xbd60f2e33e3fde3aU, 0x3e9d22223e0af05fU, 0xbe9ec9913d2c0508U, 0x3ea8b62a3ea3bfdeU,
  0xbea2186fbd467bf5U, 0x3bd3b76c3e0e3f3dU, 0xbeaf53e5bd467bf5U, 0x3d6e2e5a3dda5527U,
  0xbe8c97cebcee2e5aU, 0xbdee2e5abd60f2e3U, 0xbed20ffd3d39407eU, 0xbdb2a2c3bd982bd6U,
  0xbe3c8f5cbb53b76cU, 0xbdb9407e3dbfde3aU, 0xbe39407e3d0452a4U, 0x3bd3b76c3da5674cU,
  0xbd982bd6bc1ec991U, 0xbe3c8f5c3e85fa12U, 0x3d918e1a3d118e1aU, 0x3d118e1a3ea8b62aU,
  0xbdcff4a8U, 0xbe1840d6be39acbaU, 0x3e1bf77ebe39acbaU, 0xbdc11a09be1fae25U,
  0x3b6da9e4be663c95U, 0x3d4ff4a83d6da9e4U, 0xbdd761f7be01f8e9U, 0x3dc887583d8d1cdfU,
  0x3e8ef8333dcff4a8U, 0x3d2364cd3dc11a09U, 0x3ea189793e81f8e9U, 0x3ceda9e43e1fae25U,
  0x3e01f8e93eebce90U, 0x3cb23f6b3e1840d6U, 0xbe3d63623e878ae4U, 0xbc6da9e43e9840d6U,
  0xbea364cd3df51733U, 0xbcb23f6bbda364cdU, 0xbeb9acbabe3d6362U, 0xbd05af90bdeda9e4U,
  0xbe0eae92bd00dfbeU, 0x3e9595fc3f122247U, 0xbdc14f9d3d9348d9U, 0x3edced463ea364d1U,
  0xbe4a842a3d8a144bU, 0x3e53b8b83df88aeeU, 0xbdf88aee3def5661U, 0x3d00dfbebd381b0fU,
  0x3d00dfbe3d9348d9U, 0xbc1348d9be4f1e71U, 0x3e2117ad3d5ced46U, 0xbe3380c8be45e9e4U,
  0x3e788aee3d6f5661U, 0xbe97e320be832ce1U, 0x3e3cb556bd25b1f4U, 0xbea7ff18be6f5661U,
  0x3e788aeebde621d3U, 0xbebf0279be2117adU, 0x3e0a144bbe45e9e4U, 0xbde621d33d1348d9U,
  0x3eb4fced3e0c77e2U, 0xbf2b888cbe9f60a3U, 0x3eb249643dcd4cc0U, 0xbe7dec67bdace251U,
  0x3e01a9bd3d01a9bdU, 0x3c2ce251bcd81ae5U, 0x3d81a9bd3cace251U, 0x3c81a9bdbd8c77e2U,
  0x3d01a9bdbcace251U, 0x3cace251bd974607U, 0x3e22142c00000000U, 0xbdcd4cc0bdc27e9bU,
  0x3dc27e9bbd974607U, 0xbc81a9bd3d2ce251U, 0xbda2142cbcd81ae5U, 0x3e11def43de2e90aU,
  0xbeedb72fbd581ae5U, 0x3eb7b0763e0710cfU, 0xbf2b888cbd81a9bdU, 0x3ed5675c3e731e42U,
  0x3e6d8f073d8c32d6U, 0x3d0c32d63e8468e6U, 0x3e2f3f8b3e084ddeU, 0xbdbaee723e563139U,
  0x3e084dde3e0c32d6U, 0x3de1e0203d2b5a94U, 0x3dc2b8623df173ffU, 0x3b793dee3cda1630U,
  0x3d0c32d6bbf93deeU, 0x3e0c32d6bdf93deeU, 0xbc3aee72bc9bc6b5U, 0x3e0083efbe61e020U,
  0xbd8c32d63dd24c41U, 0xbc3aee72be9bc6b5U, 0x3b793deebd5a1630U, 0xbdbaee72bec69d5aU,
  0x3b793dee3e5a1630U, 0xbe69aa0fbedfeda4U, 0x3e8e2552U, 0xbe95ef41bef74b72U,
  0x3e9371223dc1a7b2U, 0x3f0bbd5f3e8cd70dU, 0x3e7f45c8bc8cd70dU, 0x3ebb0d9d3dd34294U,
  0xbd300cd0bcb00cd0U, 0x3e7adf0fbd8cd70dU, 0x3e6076bdbd64dd75U, 0x3e460e6a3cf67857U,
  0x3cb00cd0bdc1a7b2U, 0x3d95a47ebd41a7b2U, 0x3e72119ebd300cd0U, 0xbe3d40f9bdf67857U,
  0xbc534294bdb00cd0U, 0xbe937122be534294U, 0x3c8cd70d3d41a7b2U, 0xbec60e6abe84099cU,
  0xbda73f5f3de4dd75U, 0xbecedbdbbe97d7daU, 0xbe04099c3eaba618U, 0xbe534294bec1a7b2U,
  0xbea0f11c3d23de38U, 0x3e6ff31cbd6a18e3U, 0xbe83ae003cbb471cU, 0x3f0f6271be80c0e3U,
  0xbea3de38bc3b471cU, 0x3f39d08ebe8c7555U, 0xbe80c0e33c3b471cU, 0x3f23de38bf0811aaU,
  0xbcea18e3bc8c7555U, 0x3ed2b000beb27fc7U, 0xbd3b471cbd23de38U, 0x3ec9e8aabef8ba71U,
  0x3bbb471cbd52b000U, 0x3ede6471be953caaU, 0x3dbb471cbc3b471cU, 0x3e953caabdaf92aaU,
  0x3dea18e3bd0c7555U, 0x3eb56ce33e124f8eU, 0xbd0c75553bbb471cU, 0xbe1829c73cea18e3U,
  0x3e3bd23e3e0fdcf4U, 0xbe0bddedbe47cf52U, 0xbbffc1b13dffc1b1U, 0xbdbfd1453d0fdcf4U,
  0x3bffc1b13d3fd145U, 0xbe89de693e91dc77U, 0xbe03dfdf3cbfd145U, 0xbe23d8153e53cc67U,
  0xbe87dee6bc7fc1b1U, 0xbe43d04c3ea5d799U, 0xbe8fdcf43c3fd145U, 0x3dbfd1453e77c3a3U,
  0xbeafd52abd5fc97bU, 0x3e43d04c3efdc22eU, 0xbea5d799bd0fdcf4U, 0xbcdfc97b3e8ddd70U,
  0xbdd7cb6dbdf7c3a3U, 0x3d3fd1453e17db01U, 0xbdc7cf52bd97db01U, 0x3dcfcd60bdefc596U,
  0x3ee87dbc3da41c84U, 0xbd8caabb3eb1c990U, 0x3ec93b59bd4b2f7fU, 0x3e2804d13ef81eedU,
  0x3e109307be2fd569U, 0x3c9c4bec3e62a149U, 0xbe2bed1dbe3f769bU, 0x3ea2285e3d0caabbU,
  0xbe5eb8fd3d947b53U, 0x3e1c4becbdea71e2U, 0xbe86ce483e435ee7U, 0x3e86ce48be5eb8fdU,
  0xbdfa13133db3bdb6U, 0x3d1c4becbe5eb8fdU, 0xbe04da223d3b8e4eU, 0xbe08c26ebc7a1313U,
  0xbdcb2f7fbdabed1dU, 0xbe2bed1dbd7a1313U, 0xbe435ee7be109307U, 0xbe966f79bdcb2f7fU,
  0x3e8f4ca4bd86deb8U, 0x3e8f4ca43f05d0fbU, 0x3ed0a085bc4a4e14U, 0x3db104523ea45f70U,
  0x3e9e0d003e39723dU, 0xbd97ba8f3de397d6U, 0x3e2ccd5c3e8f4ca4U, 0xbe91681ebd86deb8U,
  0xbde397d63e39723dU, 0xbec1e028be06deb8U, 0xbda896663e02a7c2U, 0xbe0f4ca4bea67aebU,
  0xbe3104523d06deb8U, 0xbdd2bc00beaccd5cU, 0xbdb104523d289666U, 0x3d86deb8beb31fccU,
  0xbe39723dbddb29ebU, 0x3e138399bd5b29ebU, 0xbe46171e3c06deb8U, 0xbd39723d3e52bc00U,
  0x3b34e6e93e6d6f12U, 0xbe3d61bcbe2c6c16U, 0xbe3d61bc3ea55b11U, 0xbc07ad2fbe0a80caU,
  0xbded6f123e15cf39U, 0x3e9028023c9e4a0cU, 0xbe1e4a0c3daf3fb2U, 0x3eb37d1b3c87ad2fU,
  0xbe37ba85be0a80caU, 0x3e8916fd3e6d6f12U, 0xbd98a2d5bdf31649U, 0x3e5c796cbdd12afdU,
  0xbe4308f3bdba8e20U, 0xbc87ad2fbc87ad2fU, 0xbe1b7670bd9e4a0cU, 0x3dc03558be29987aU,
  0xbe8205f7bc87ad2fU, 0xbe0205f7bb34e6e9U, 0xbe8a80cabcf8bd80U, 0x3e0d54663e75e9e5U,
  0x3f01385abd46ccd9U, 0xbd1f0a473de49ec6U, 0x3f1dcc32bd6e8f6aU, 0x3e1021503d9f0a47U,
  0x3e8630acbddaae22U, 0x3e5fa674be1a11f5U, 0xbdee8f6abdbcdc34U, 0x3e9795ccbe102150U,
  0xbe28faebbcee8f6aU, 0x3e0630ac3c6e8f6aU, 0xbe7387bd3d32eb90U, 0xbe1a11f5bd46ccd9U,
  0xbec450b03d6e8f6aU, 0xbd9519a33e32eb90U, 0xbece41543dc6ccd9U, 0xbd8b28fe3e6e8f6aU,
  0xbe9f0a473dee8f6aU, 0x3c9f0a473eb06f67U, 0xbe81385a3ddaae22U, 0xbd32eb903e46ccd9U,
  0xbd0b05cfbe1c6689U, 0x3e88205b3f37ea5aU, 0x3e27fc5abd8b05cfU, 0x3d5088b63e10d0b8U,
  0x3e27fc5abd5088b6U, 0xbc8b05cfbd8b05cfU, 0x3eb0acb7bd223172U, 0xbe88205bbdfedffcU,
  0x3e853ae6bd67b459U, 0xbe1c6689be5088b6U, 0x3ecda3423d0b05cfU, 0xbe5088b6be969ba0U,
  0x3e56539f3d223172U, 0xbe10d0b8be8b05cfU, 0xbd395d143e053ae6U, 0xbe053ae6be395d14U,
  0xbe969ba03e0b05cfU, 0x3bb95d14be053ae6U, 0xbf0255723dadc743U, 0x3ddc1e88bd223172U,
  0xbe4b3820bd540e0bU, 0x3e2ad26dbe7a57b1U, 0xbe4846273bbc7e43U, 0x3e21fc82be9342a4U,
  0xbda4ee7b3d8196ceU, 0xbe0d5eb2be65b9e2U, 0x3daad26d3e484627U, 0x3dc84627bdce2a19U,
  0x3e5fd5f03e8488c7U, 0x3dc846273e3c7e43U, 0x3e7473bf3e97ad9aU, 0x3d0d5eb23ea3757eU,
  0x3e7d49aa3e0a6cb9U, 0xbdeb9dd43e21fc82U, 0x3d8d5eb2bd24ee7bU, 0xbe540e0b3dd9f1fdU,
  0xbe21fc82be7181c6U, 0xbd5fd5f03e2ad26dU, 0xbe27e074bebb0546U, 0x3d4846273e1f0a89U,
  0x3e112a4dbdd7e303U, 0xbe3663193cb2aa38U, 0x3d94e32ebe23c6b3U, 0xbe94e32e3d32aa38U,
  0xbdd07141be57e303U, 0xbdee384abd23c6b3U, 0xbe85ffaabe2ef156U, 0xbd418dbcbd32aa38U,
  0xbe45469dbd32aa38U, 0x3c6e384abdd7e303U, 0xbdd7e3033cb2aa38U, 0xbd05ffaa3da3c6b3U,
  0xbb6e384a3ddf54c5U, 0xbd9c54f1bda3c6b3U, 0x3dc18dbc3e630da7U, 0xbe7d1bcf3d8d716cU,
  0x3ea5a3233e71f12bU, 0xbdab3875bd7d1bcfU, 0x3eec5bd93e630da7U, 0x3d8d716c3e94e32eU,
  0x3dbbc5063e238a92U, 0xbcc1d3a33d9d7bf4U, 0x3d35b669bd35b669U, 0xbdc1d3a33dec39efU,
  0x3e6932a0be0848cfU, 0xbe3bc5063d72488cU, 0x3e41d3a33c915ebaU, 0xbe1a74a600000000U,
  0x3e3bc5063da9992fU, 0xbc915ebabe80b68aU, 0x3ca9992f3e7b5e77U, 0x3e208343beafa7ccU,
  0xbe41d3a33d41d3a3U, 0x3ec04ffcbdbbc506U, 0xbeb5b6693c72488cU, 0x3e83bdd93d915ebaU,
  0xbeaca07dbd29992fU, 0x3dafa7cc3e8cd3c4U, 0xbe5d15663d35b669U, 0xbb41d3a33e92e262U,
  0xbdf704efbe59f54bU, 0xbe613934bdd2b162U, 0x3d02c660be4f0f6eU, 0x3c687d1dbd7704efU,
  0xbd82c660be3ce5a8U, 0xbd02c660bdcb6d79U, 0xbdd9f54b3be87d1dU, 0x3e2377f8bd114e32U,
  0xbb687d1d3d82c660U, 0x3e442990bce87d1dU, 0xbe2719ed3e442990U, 0x3e565357bd3ce5a8U,
  0x3c2e5dd63d914e32U, 0x3e84975b3c914e32U, 0xbd7704ef3e866855U, 0x3d4b6d793d4b6d79U,
  0x3c914e323ee6ac23U, 0xbd4b6d793d7704efU, 0xbda719ed3edf683aU, 0xbe94f027bd8a0a49U,
  0xbc9a1f1ebcde9eb9U, 0x3d08ff37bc9a1f1eU, 0xbcab3f053e06db3aU, 0xbc08ff373db3cef8U,
  0xbdde9eb93dda56c0U, 0xbd9e67183d118f2aU, 0xbdc0a6e53e87ed39U, 0xbd118f2abc6fbea0U,
  0xbe3816f23dd60ec6U, 0x3d4d7ed2bd784e94U, 0xbe2b3f053e7eba8aU, 0xbc08ff37be006f44U,
  0xbe3816f23da2af11U, 0x3e4712dcbe3c5eecU, 0xbc9a1f1e3dde9eb9U, 0x3e17fb21be0d4731U,
  0x3cab3f053cab3f05U, 0x3df84e94be2b3f05U, 0x3e06db3abdd60ec6U, 0x3ccd7ed2be3a3aefU,
  0xbebe4763bd93500bU, 0x3e00e6093f42e1e4U, 0xbf14d8e0bddcf810U, 0x3e7585673ebb35b8U,
  0xbec46ab9bd93500bU, 0x3e4a8e0f3eb200b8U, 0xbde93ebcbc446ab9U, 0x3e07095f3e903e60U,
  0x3e3200b800000000U, 0x3e38240d3d758567U, 0x3e25ba0c3d2bdd62U, 0xbbc46ab9be3e4763U,
  0x3ea2a8613db8240dU, 0x3d2bdd62be997361U, 0x3e903e603d2bdd62U, 0xbd5cf810bec46ab9U,
  0x3e903e603ddcf810U, 0xbe13500bbeec5067U, 0x3bc46ab93d758567U, 0xbe197361beec5067U,
  0x3ee8ce7ebd12a65cU, 0xbd8b513ebed4a46bU, 0x3edbf98abd3ea511U, 0x3edbf98abe75a373U,
  0x3ec7cf77bc6aa3c6U, 0x3e374ff3beb1d01cU, 0x3e3ea511bc6aa3c6U, 0x3e8efbcdbe7cf891U,
  0x3ecb7a06bcaffad4U, 0x3d215098be634ea8U, 0x3d92a65c3d215098U, 0xbbeaa3c6be0b513eU,
  0x3e90d114bccd4f4dU, 0xbd794e02be45fa2fU, 0xbde34ea83caffad4U, 0xbc92a65cbd4d4f4dU,
  0xbe45fa2f3d794e02U, 0xbda15098be215098U, 0xbec07a583d8b513eU, 0xbe28a5b6bc92a65cU,
  0xbe85d642beef6602U, 0xbcf148933e13083aU, 0xbe5e6ee8be8b7df5U, 0x3e4b953cbd8f4317U,
  0xbdd31f81bd802e8eU, 0xbc34f66ebd34f66eU, 0xbc34f66e3d9e57a0U, 0x3cd31f81be93083aU,
  0x3cf148933e8f4317U, 0xbe4045d5be8f4317U, 0x3d07b8d33e5e6ee8U, 0xbe07b8d3be8f4317U,
  0x3e25e1e53ea3ff54U, 0xbe0b7df5bde9be4eU, 0x3d9e57a03e29a707U, 0xbd531f81bd07b8d3U,
  0x3e34f66e3e62340aU, 0xbd87b8d33dcb953cU, 0x3d440af73e38bb91U, 0x3de9be4e3e31314cU,
  0xbe265ffb3e0234daU, 0x3c90ac81be4e2905U, 0xbe2d9bce00000000U, 0x3b677a68be0234daU,
  0xbe34d7a13be77a68U, 0xbd8970aebdb4d7a1U, 0xbe46ed31bd677a68U, 0xbd9f2428bc90ac81U,
  0xbe22c211bd8970aeU, 0xbe0234da00000000U, 0xbe10ac81bd4a8b1bU, 0xbe3139b83dca8b1bU,
  0xbd97e8543be77a68U, 0xbe10ac81bc90ac81U, 0xbd9f24283dd1c6eeU, 0xbe22c2113ce77a68U,
  0xbd677a683e51c6eeU, 0xbd8234da3cca8b1bU, 0x3d2d9bce3ee5ab73U, 0xbce77a683c90ac81U,
  0x3ddc23f83de3bb48U, 0x3e3dc6bcbe8e550dU, 0x3da700ce3de3bb48U, 0x3e140688bdc55e0bU,
  0x3e1406883cf2e9e6U, 0x3d97d2303ddc23f8U, 0x3d9f697f3da700ceU, 0x3e17d2303eacb24aU,
  0x3ec378373dc55e0bU, 0xbe103ae13e362f6cU, 0x3e2acc763cd48ca9U, 0xbe8a89653ebfac8fU,
  0x3d08a391bd97d230U, 0x3d2700ce3eaacc76U, 0xbe2acc76bdeb5297U, 0x3e010c42bdc55e0bU,
  0xbe5fefa0bdeb5297U, 0x3e17d230bea51afaU, 0xbeb62f6cbdd48ca9U, 0x3e7e4cddbef10412U,
  0xbe0313823e9a22cbU, 0x3e9547ff3dd59b0dU, 0xbe80a61c3db87a46U, 0x3e5a75d93e277c7cU,
  0xbe906d33bdb87a46U, 0x3e0580e83d9b597eU, 0xbe97b565be031382U, 0x3d422fde3e98ec18U,
  0xbe277c7cbe422fdeU, 0x3e360ce03df2bbd5U, 0x3d8cc91abe49780fU, 0xbd4be575bc69063dU,
  0x3e0cc91abd250f16U, 0x3d8313823e3ae7acU, 0x3dcbe5753d72bbd5U, 0x3da0344a3e0cc91aU,
  0x3d8cc91a3e3fc278U, 0xbdede109bcaec4aeU, 0xbc69063d3e3ae7acU, 0xbe2ec4aebd69063dU,
  0xbbe49d1cbdd6534aU, 0xbd39bfa73ee2d3e2U, 0xbe52c0d6bd2b75d5U, 0xbd96071a3e85f40eU,
  0xbed2c0d63be49d1cU, 0x3b649d1c3e329abeU, 0xbe8d18f7bc2b75d5U, 0xbce49d1cbd39bfa7U,
  0xbe96071abd39bfa7U, 0xbcc80978bde49d1cU, 0xbcab75d53cab75d5U, 0xbdc80978bdab75d5U,
  0x3d39bfa73ce49d1cU, 0xbe329abebe82619aU, 0x3e7a0bd7bc2b75d5U, 0xbdcf2e61be59e5bfU,
  0x3e8ee2323cab75d5U, 0xbd87bd49be8d18f7U, 0x3ecf2e613d009860U, 0xbdcf2e61be82619aU,
  0xbe425b823c89ee88U, 0xbdd26e263eacb517U, 0xbdfff9e6be853f94U, 0x3d5110c6be1852b6U,
  0x3cd32e63be948b39U, 0x3d4c3ee23d9ad233U, 0x3f5145d2bec16e88U, 0x3e6df7563d6e4835U,
  0xbe3c913d3eabc495U, 0x3ea7ac71be473fc5U, 0x3da700bfbe42117eU, 0x3d46aef5bda3475eU,
  0xbd2e2fd73e122ff2U, 0xbefc6f56bddeae7dU, 0xbe9fd17b3e01b299U, 0x3eaa8c133ec824d3U,
  0xbea19d10bd08cc6bU, 0x3d9ba8f43e77813fU, 0x3e8ba256bd460152U, 0x3eb387b73cb1b4d8U,
  0xbe8cb0d1be5f6fe9U, 0xbd849cf9bf1c85a8U, 0xbf7b0388be47a7e7U, 0x3d1e1f57bf289715U,
  0x3e8cf5053e13a40eU, 0x3d4b8b73bf1984f2U, 0x3e9009dabce840e8U, 0xbed85c353ca682dfU,
  0xbd1123793e30d195U, 0xbf1fca38bdad0b95U, 0x3e4399bebe5dd1e0U, 0xbe7f6aa2be3eb006U,
  0x3d077d9f3eaf27dbU, 0x3ec48b173eaa2c43U, 0x3dabd2f9bdba6b52U, 0x3d9eee813df849d2U,
  0xbed40bdbbc5001efU, 0xbd6e8c8b3c923dbcU, 0x3c605819be07809aU, 0xbe613b64bb0e87a8U,
  0x3d96866c3e60defcU, 0x3e3567423ed0299cU, 0x3eea86a33eb2bbb5U, 0x3e31b3d33eb2452aU,
  0x3e72da2a3dbc6278U, 0x3f176d163e27df7eU, 0x3e2bed743df9bcb7U, 0x3c4ce83d3e88a97fU,
  0x3f1fdf54bba8625fU, 0x3d1f08c4bdbbfa3bU, 0x3ed16a983e72bc0bU, 0x3e7e12ca3de61dbcU,
  0xbdaf79ec3f048d2eU, 0x3eb559f43f02f95cU, 0x3e387af93de52335U, 0x3bbb62223da9f370U,
  0x3da152f53eb316a7U, 0x3eb61e773e3f5c5cU, 0x3ebb6ebcbd3cbb0cU, 0x3e905a893e352e74U,
  0x3ee992f9bdaef6ddU, 0x3c7ea2143ddecdfbU, 0x3e6862503f17e7b1U, 0xbd3a9c953da4fb24U,
  0xbecd3dd53e76b31aU, 0x3e3c1e253d9641f4U, 0x3e45a21cbe27bf6bU, 0x3d92e7f93e21a83fU,
  0x3ec554c83e229b3eU, 0x3e92b0a1be25755fU, 0xbbebb4f33d70f2f8U, 0x3e6792b63f20390fU,
  0x39b384f4bd131004U, 0xbebc92df3d840c0aU, 0xbea79e9fbb444432U, 0x3c79f331bed980ceU,
  0xbebd0aadbef8f124U, 0x3e406e7c3e6f0c31U, 0x3e025b043f02ad07U, 0x3ea8811e3e5c72c4U,
  0x3ed2fa543e1c4f30U, 0xbe8e6d163e8c4a81U, 0xbe37661dbe6fbed0U, 0xbee55357be92eec3U,
  0xbed08775be98cd28U, 0xbef1a2c4bf0950f4U, 0xbf0884cdbf09a9a0U, 0xbeb27d453e31afb1U,
  0x3c5f2173befe25b1U, 0xbe9705b9be2e22edU, 0xbdc0fba53cb016a7U, 0x3dc0a6b13dc1854eU,
  0x3d1382673cddaa00U, 0xbe100cf63dc1621fU, 0x3d93a7a9bd773567U, 0xbeb3142abf081e78U,
  0xbe9d033d3dc7b329U, 0xbc9ab649be2fe8abU, 0xbed4bab3bef31b01U, 0x3e87f099be228f40U,
  0xbe3c851d3efa3a8aU, 0x3e26acad3e29f028U, 0x3d506efc3d8798f0U, 0x3c6150d43c92f809U,
  0x3ebf47b23f004067U, 0x3e49fd67be2794a3U, 0xbe29921c3d50fc86U, 0xbe7d42ee3e56934aU,
  0x3d67d4bebe88ff50U, 0xbe8d2ff1bdef1069U, 0x3e87d6cc3ccfb9edU, 0xbde08356be0bf3deU,
  0xbe73d7d33ea6291dU, 0x3ef449353a9dc201U, 0xbdf31543bb611699U, 0x3e01977f3edb4c84U,
  0x3eeb02093ddb6e92U, 0x3f066b9d3e77caa0U, 0x3d59ed683dd45ef6U, 0xbd0c8de23f13d75cU,
  0x3ef6c5213de8d6e7U, 0x3cf80c43bd84db85U, 0xbec6e88fbefa2059U, 0xbf24470abd9ca36fU,
  0xbd746ae6bf06e634U, 0xbeab0ab0be9cfc06U, 0xbec8caa1bebb08fcU, 0xbf10af37bedc8d34U,
  0xbd38ab12be038cc6U, 0xbe92006cbf175f3aU, 0xbe247a533ddb7038U, 0x3eef7a7e3ddc920eU,
  0xbd5ef6cabe30e57aU, 0xbdf4597d3eba47a7U, 0x3e636745bd4d0a8eU, 0xbd609b8dbdf6daf9U,
  0x3eac8586bd3490a3U, 0xbd43530abdaecff3U, 0xbee106af3e9321f4U, 0x3df487b4bdac1ea8U,
  0xbe434b12beff5b6aU, 0xbea20bd4bea02e1cU, 0xbe01527dbe4d90eaU, 0xbc66b484be601a62U,
  0x3f4a7d4dbe9bb342U, 0xbe0dfd4e3e9c8decU, 0x3c373c623ed6b6eaU, 0x3ecf1eaa3e3b4fedU,
  0x3e86c532be1edc1bU, 0xbe97182abed7b14bU, 0xbe88ff18bd86c55eU, 0x3bb39a96be42487eU,
  0xbe038c60be80ca48U, 0xbf2378fb3e04c619U, 0x3e41e7593db88cb0U, 0xbd00b8eebdbb2ef0U,
  0x3d7b88583ebedbd3U, 0x3ec5a8f6be7ab7adU, 0x3c1f29223ee5e9e4U, 0x3e621a5cbf1c4736U,
  0xbe4a477abcc1a685U, 0xbb0347843e9ba516U, 0xbefdc04abddbe445U, 0x3e0faf28be0167a5U,
  0xbe0788d9bd383f31U, 0xbe7710f0bbc109cfU, 0xbe680affbe0808f3U, 0xbe5cf6afbef2f83cU,
  0xbe6167a93e782075U, 0x3c9ed35a3e019f95U, 0x3e893491bebe7966U, 0xbea75b783d501706U,
  0xbec1216d3ec893b4U, 0x3ea9e4133e028921U, 0x3e205376be3d5eceU, 0xbeb1543b3eb3155eU,
  0x3ec0134fbcde8fa5U, 0xbe3c54f13de7249bU, 0xbcad3fca3dc7644dU, 0x3eb02665bccf632bU,
  0xbca1cddfbdcfb265U, 0xbe79b3d2beb86613U, 0xbf09fa6cbeb0c373U, 0xbe96e394be57de68U,
  0xbdb59c14bea7ebdeU, 0xbba9cfb93eb1054dU, 0x3e206359beb0ad4bU, 0xbe31d12f3e1b20d4U,
  0x3ea5eeba3e67669dU, 0x3e8b7b423d9acc12U, 0xbe725b1c3dcf08acU, 0x3da799c5bdd16a0fU,
  0xbe45e516bd7c235cU, 0xbded5292bdb89b07U, 0xbed50f4fbe32bf84U, 0xbca1596b3d5a3b99U,
  0xbcba07d9bee62f94U, 0xbf077ebf3eac04f1U, 0x3e62ba1fbc437086U, 0xbeb377ebbc9989ffU,
  0xbdba44a33ec587e4U, 0x3eb6c18bbd77a7d0U, 0xbd333672be57dc4cU, 0xbebf46b53e008fc5U,
  0xbca116ed3e9e3d51U, 0x3e5f7e1dbe189dceU, 0x3d07e21dbdbb3e37U, 0x3de1d51f3e0edcceU,
  0xbe8181903e8c1d3fU, 0x3dc435163dfcb944U, 0xbc76f206bcbf97dfU, 0x3c75e7553e1d1730U,
  0xbf0b13dcbed217e5U, 0xbe6002da3e1ecdc9U, 0x3ea35b21be1a1b73U, 0xbedd6604be3cbb7cU,
  0xbef839ed3e237c85U, 0xbe8edcac3c08ea39U, 0x3d81260dbe9571d3U, 0xbf18b9b8bebdae74U,
  0xbe3d7e94be24a108U, 0x3c70bb37bf08acedU, 0xbed4a3933e95078fU, 0x3b8ecab7bddbaac6U,
  0xbdfe7b10bee94a4cU, 0xbd98742a3d8d708dU, 0xbe4855193e4cc44cU, 0x3e03a491bdbed879U,
  0x3b06e235bec2f2ccU, 0xbef3ef7a3e5d1a04U, 0xbdace1693ea00f61U, 0x3ec0bfbfbe1f4306U,
  0xbb4ad9c7bdacf180U, 0x3e2db84b3ef522d4U, 0xbe26e8b9be19d932U, 0xbe226b653dc172e4U,
  0x3dddf95c3df4a48dU, 0x3e3f18f9be268e42U, 0x3c18c57a3db67ef7U, 0x3e8a92fb3e9251fbU,
  0x3e8adc353cfc8b59U, 0xbd434dbe3b47843aU, 0xbe0102ec3e238e72U, 0xbd7200b3be883f64U,
  0x3f1065503ee527e6U, 0x3ef42c37bd6c9d7bU, 0x3dac38833f01ede4U, 0x3eb6d49e3eee237fU,
  0x3e8f4c483dd0d5dcU, 0xbe0c36d63ea44b8eU, 0x3ed4e7313ebcbae1U, 0x3e38f653beb62d41U,
  0xbedec8153ef02e6fU, 0x3e544f8f3dc06b67U, 0x3d032ee7be498accU, 0xbe11d6533e8b4b14U,
  0x3e6514e5bbc435aaU, 0x3a96130dbddc3ce0U, 0xbec15da63e13eea6U, 0xbd22b98abe0bfe25U,
  0xbd15a46bbed79ac9U, 0xbefb3d303e1e45bfU, 0x3b9d8d3f3dd59a56U, 0xbd5e967abeb4f33fU,
  0xbea303183e17666eU, 0xbdd05730bc426485U, 0x3ed40d3d3edbecf7U, 0x3ed1ca56bdbcb939U,
  0xbdf4756f3ea25703U, 0x3e659c1e3efcc6dcU, 0x3eb1efaebec6bce9U, 0xbebc2ea9bda03de5U,
  0x3dd113ca3d8b1017U, 0x3e8be5edbe915008U, 0xbf1eba61bd0ae733U, 0xbea02f06bec301cfU,
  0xbec06b17beea5977U, 0xbeaec5febe8861f8U, 0xbf018c79bec337b7U, 0x3d79abd9bea6dc82U,
  0x3ebdc5b1bbbfd6e3U, 0x3c76c061bdf65e12U, 0xbe949f343e963f4eU, 0x3e9b815d3ddfe99cU,
  0xbd84c65abdacf1dcU, 0xbe1b365c3a963678U, 0x3d072a26be68301dU, 0xbe8e0c47bd0eb675U,
  0xbe9ee6233d05cf68U, 0x3d9bef723e83acfdU, 0xbd7000e9bf02d059U, 0xbf0e19a9be321b9dU,
  0xbdbc47f6bd2827b3U, 0x3e7b337ebd1b5fd6U, 0xbe89e643be36f15fU, 0x3e14bc403eb5ed75U,
  0x3ccf193abdb88e57U, 0xbdb7ecef3e0b7880U, 0xbf1205c23dbed32aU, 0x3e4023273ed553dbU,
  0x3ef72072bec64aceU, 0xbda84f7e3e6a31b3U, 0xbe12a5a73c32c34dU, 0x3e0e53a3bb216f76U,
  0x3d2bd2babe764652U, 0xbea7e6733ced5cd8U, 0x3ecffb0abcfae0deU, 0xbeeb2d17bd07f253U,
  0x3ea964473e601a91U, 0x3e84064bbe82036dU, 0x3ee82cff3f25e06bU, 0x3ebfd2c3be921123U,
  0xbe89eb193eecd9ecU, 0x3e1b3c7d3e56b488U, 0x3e07f73cbe36a0d5U, 0x3d5982623c3d019aU,
  0xbe050a09be2bec2fU, 0xbe56fa963d4ee87dU, 0xbbfc336c3ddaa24aU, 0xbccf3e0abe20741fU,
  0x0U, 0x0U, 0x0U, 0x0U,
  0x0U, 0x0U, 0x0U, 0x0U,
  0x0U, 0x0U, 0x0U, 0x0U,
  0x0U, 0x0U, 0x0U, 0x0U,
  0x0U, 0x0U, 0x0U, 0x0U,
  0x0U, 0x0U, 0x0U, 0x0U,
  0x0U, 0x0U, 0x0U, 0x0U,
  0x0U, 0x0U, 0x0U, 0x0U,
  0xbe7b1a143e08e76cU, 0x3e4bb86e3e22f6ffU, 0x3dc4ba5d3c9a6441U, 0xbeb09d27bf0e39e4U,
  0xbe046b3c3ecb9205U, 0x3e916e773f06f58bU, 0x3dd778ce3de3d82fU, 0xbcd960f13c9f47b0U,
  0xbaa9cf4ebf4b57a1U, 0x3d20b35b3e00a6b7U, 0x3efb548dbded1799U, 0xbf07f905be25652dU,
  0xbda5827f3ca9d154U, 0xbeede0bd3ea06396U, 0xbe4476b9bdc11bc7U, 0x3e7a64a93f15db8fU,
  0x3db6b9723e31a1f7U, 0x3d6dbf98bc140254U, 0xbecb5ce6bef141d1U, 0x3dba10dabe243416U,
  0x3e3c364e3efc2965U, 0xbeba53093e969439U, 0xbdf0ae7bbf2a63feU, 0xbe804faf3d4078a5U,
  0x3e54a7f6be73ba63U, 0xbe7a071abebd5eaaU, 0xbebfa4a93ecd1747U, 0xbf375ab2bd8849ecU,
  0xbee5d1a6be6b6edeU, 0x3ee802aa3ee5c301U, 0x3cc1ba4f3d956bd1U, 0xbe015dc33eccf6d4U,
  0x3e09daf8bd529259U, 0xbeaee5a23dce4bedU, 0xbece4f4d3e3dc0ccU, 0xbd5a72a8bf07a728U,
  0xbc147245bedcbe0aU, 0x3e8fc3ac3f03a067U, 0xbd7915c7be5f37bbU, 0x3dbe2f5f3f18b39cU,
  0x3e6982fb3dd1abaeU, 0x3d12868bbef17827U, 0xbdc5f812bf279f35U, 0xbcc8e933bc831bfaU,
  0xbf1966623dcb4c5cU, 0xbf1ea1c63f36434cU, 0x3bfc34343f3533d6U, 0x3eba74983e6a061dU,
  0xbd9098663be86d68U, 0x3f3904ccbe7fc566U, 0xbf2b6d33bef0b6a9U, 0x3dddd23dbe062cddU,
  0x3ea37b063d215114U, 0xbd3f8d2a3e2ab118U, 0x3e04b0bd3e1895d3U, 0xbe0302933e803572U,
  0x3ec6f6a93ed258b2U, 0xbebfc10abe788924U, 0x3e6dec31be91dd62U, 0xbdb367ccbef0b35cU,
  0xbedf0bfd3e48af15U, 0x3efdbabc3d9dcba2U, 0xbeb64c8d3de6c3daU, 0x3db7f8b2be90c2fbU,
  0x3de20953bc9a75fdU, 0x3e314b50bcdc7fd1U, 0x3d24068e3d6e00dbU, 0x3e88ca783e955b16U,
  0xbe5d912abe839f19U, 0xbee6f063be97a810U, 0xbe4c09e7bf11f81aU, 0xbe6ad66abedde752U,
  0x3e3a26ec3e85b672U, 0xbe573c1ebe879c2bU, 0x3d68483e3ea57dd6U, 0xbe04e542bc052f75U,
  0xbef1a1a03e35c163U, 0xbe0ef09bbb85da24U, 0xbeae116e3d10b2ffU, 0x3e73d2aa3ee2ef44U,
  0x3ee087a6bd5494f6U, 0xbe3db871be16b33bU, 0x3db2e9f8beb0d0b4U, 0x3d0318b0be86e7fdU,
  0xbee696f8be6a0f86U, 0x3de14a7c3e82505eU, 0x3e76601a3f2e93cbU, 0xbe8d5c173ef4f57cU,
  0xbea9629c3e30c371U, 0x3e97a318beefead1U, 0xbe1bf712bd9896a6U, 0xbb90ff443e276c2dU,
  0xbe206e813eb77085U, 0x3c3a813d3e60b49aU, 0xbe4bc3553ccb40b8U, 0x3eab5d983ea009e1U,
  0x3ec86728bc93a304U, 0x3e79735e3e3690f8U, 0x3ea813e13e9d5735U, 0xbe91fdb83d4efb14U,
  0x3c6ffbd03ed1103fU, 0xbca3ae51be55774aU, 0xbe416c323db66127U, 0x3e24cbd5bd677fe1U,
  0x3f122f63be6005a6U, 0xbe989f853dd3c44dU, 0x3ce1c0843dd63d6fU, 0xbf09f7623da6a626U,
  0x3e18b0e43d31a84aU, 0xbe539da1beaae4c8U, 0x3d2e620cbe9871ceU, 0xbe9a5dd33ccedc89U,
  0x3f0d9b9cbdbd36bdU, 0x3ed1db573d670614U, 0xbdd546ff3a8c224dU, 0x3e9cb7b0be66ab01U,
  0x3e5a41843eb13a79U, 0x3ec76c63bf255ebaU, 0x3e2f36eebefe2aa7U, 0xbed815773e7d2834U,
  0xbd9c55c53b8e57f4U, 0xbf1406a33d363ac6U, 0xbe4fb05c3d0a7952U, 0x3ea03702bdbc9cf4U,
  0xbdcb6f5fbec0b3aaU, 0xbe73baba3e9112d8U, 0xbe46a5893db69a07U, 0x3ebc1821be24d5ddU,
  0x3ef39504bdab855fU, 0xbe875679be0c58e0U, 0xbd2bbd43bf233ae3U, 0x3e8dfd633e560cb9U,
  0xbeb95724bc0b60e6U, 0xbe885f2c3ce172d0U, 0x3e3a840fbe490413U, 0x3e15c4353ea0b718U,
  0x3f03a435bf7ad4c3U, 0x3eed1bbc3eb85f86U, 0x3eaa01a6bdfaac1cU, 0xbdac46dcbca4b5b8U,
  0xbd4d89f1be0a028fU, 0xbf8a359a3dc60cf4U, 0x3e0db31ebd2d5fbaU, 0x3e3d14d1bde2f20fU,
  0xbec6f3073e98bedfU, 0x3f4439e33ee6a32fU, 0xbe878ababf21eabdU, 0xbe51958a3e8b4c4eU,
  0xbe64c654be60a7ffU, 0x3ec2870cbf4718f4U, 0x3d52b78fbe5b3803U, 0xbece11b23b15cd1dU,
  0x3ea653983e44a1c9U, 0xbd7728623b1c191bU, 0xbdd58e413eb2a763U, 0xbd3db6273f178a3bU,
  0xbe9be2fdbe98e747U, 0xbd73e222bd3c8755U, 0xbf28a4433e92f68cU, 0x3d9104533d8a5f28U,
  0x3b809e06bf01d5cdU, 0xbd3a0c81be490652U, 0x3ecab1b73ef93cd0U, 0x3e290b7ebde7903cU,
  0x3ee022463dc82c4eU, 0xbdad9ad7bdbb42b8U, 0x3ee31912bdccb066U, 0xbd4958c3bd67c346U,
  0xbe0793733d3109bfU, 0x3e433509beb93f7aU, 0x3eea638c3ea27019U, 0xbe4414a6bf693473U,
  0x3ecbbe2ebf09c359U, 0x3e57f76cbcdd6a9fU, 0x3ebe8b15bdfa9884U, 0x3ee596563d4072abU,
  0xbe1f52dc3efb948fU, 0x3f01105abed36575U, 0x3efa4dfabc8cbf44U, 0x3b7712953f0a39cdU,
  0xbe5a6763be8b01dcU, 0xbe2e0cd5be9019ddU, 0xbc949a5c3e84ddd1U, 0x3e19a2653ce5d28eU,
  0xbcef8c72be58dd67U, 0xbeae70293e317112U, 0xbe83bbd2beae4facU, 0x3e9e99123e5f6a62U,
  0xbd42b95a3dd3a262U, 0x3dfaf9c03eb2f809U, 0xbf43c43dbeab5b67U, 0x3efc1016bf1bc0fbU,
  0x3ec851003e657600U, 0x3f0d5ed0bf2f09e1U, 0x3d6fa1123e6e38aeU, 0xbebd7f87be51f0efU,
  0x3d8b76a73e6d871dU, 0xbea07e53be406d4cU, 0x3e31da7abf088375U, 0xbf839a283e9af7caU,
  0xbc8dbe1f3da6ce05U, 0xbf98cc3e3cbceb69U, 0x3ef308bebecf2ae2U, 0xbe842ce8bcf07f5cU,
  0x3d8c0ce03cbf756aU, 0xbdb85ae8be811d29U, 0xbeda31603c13436dU, 0xbf02ee603f841efdU,
  0xbe92df4cbe74dea9U, 0x3f12019ebef6e0e2U, 0x3d9380ae3e8b4247U, 0x3ecc294bbe90d9b5U,
  0xbeae0da83e0ba1a6U, 0x3e8a4e183e6dad7dU, 0xbf039a3d3e02948aU, 0xbeb204abbe9572afU,
  0xbf1798033e8b6150U, 0xbe2ea88d3eece2b8U, 0xbf1c47f7bf3f1584U, 0x3eafab9cbf0d431aU,
  0xbe65535b3e21f159U, 0x3eafd96b3e218d88U, 0xbee4bef5be71bbdfU, 0xbdaaddafbeb916ffU,
  0xbee4c706bdadc0a6U, 0xbf3059f43e2a872eU, 0x3dc91a41be7bf688U, 0x3eb79c8dbe313ef7U,
  0x3e73c58ebe969aa1U, 0xbf16d33cbc8daca1U, 0xbe3155723e8e1172U, 0xbe5a3b6b3cb4395aU,
  0x3eaf1ed5bf060939U, 0x3eaf44d2beebf88cU, 0xbd68a8ecbc74b1e8U, 0x3d9b32623c5d4a0bU,
  0xbd0bdc77beae17d6U, 0xbe8fd76dbe0a3825U, 0x3e8c75463f6e5b0cU, 0x3df453583e312441U,
  0xbe34222cbe8626dfU, 0x3f126d19be90beadU, 0x3c4d0f58be5335c0U, 0xbe99927dbe5bde05U,
  0xbec480343f4c72e4U, 0xbd1d66d43dfde5d1U, 0xbe8d09da3e8f4f0bU, 0x3ec9fde2be7aeaf6U,
  0xbe04fb4abeefff2bU, 0x3d373ddfbf18df22U, 0xbec17bc93e3e5165U, 0xbec59b5dbddf2c09U,
  0xbdcc3f3fbe858766U, 0xbe8c99f53e9ca261U, 0x3ddd51e5be80aaa6U, 0x3da86db9be8306e9U,
  0xbd0ac5523de17b76U, 0x3cbd043b3dc0c040U, 0xbd72c34a3e024ea9U, 0x3d38257cbdd1033eU,
  0xbe9b573cbf1629a9U, 0xbe9629a93ea084cfU, 0xbe1b573c3e81735dU, 0xbf10fc163f56e357U,
  0xbea084cfbe90fc16U, 0x3c25b2623e63d547U, 0x3d788b933ea5b262U, 0xbe90fc163eb00d88U,
  0xbec4c3d4bedea7b4U, 0xbe06a0f03ea5b262U, 0xbdcf1efa3eb53b1bU, 0xbefdb9263eb53b1bU,
  0xbe597a21bea5b262U, 0xbd4f1efa3eb53b1bU, 0x3d90fc163e597a21U, 0xbf01735d3ed44c8eU,
  0xbf040a26beb53b1bU, 0xbd90fc163efdb926U, 0x3ca5b2623e597a21U, 0xbf10fc163ebf9641U,
  0xbee902dabe6e306dU, 0x3dba68ae3e8bce83U, 0x3e81735d3d90fc16U, 0xbf0937b93edea7b4U,
  0xbef88b93bec4c3d4U, 0x3eb53b1bU, 0xbe06a0f03e1b573cU, 0xbf18c0723ef88b93U,
  0xbe90fc16bcf88b93U, 0x3d25b2623eaadff5U, 0xbd788b933c25b262U, 0xbeaadff53e25b262U,
  0xbe1b573cbe788b93U, 0x3d25b2623ed97a21U, 0xbecf1efa3e44c3d4U, 0xbf0937b93e9b573cU,
  0xbf25b262bd788b93U, 0x3e06a0f0bd25b262U, 0x3cf88b93be300d88U, 0x3d4f1efa3ef35e00U,
  0xbf1629a9bdcf1efaU, 0x3de3d547bc25b262U, 0xbe597a21bd25b262U, 0x3e81735d3e3a68aeU,
  0xbf56e3573d788b93U, 0x3e597a21bdba68aeU, 0x3d4f1efabde3d547U, 0x3df88b933eba68aeU,
  0xbf597a213e597a21U, 0x3cf88b933d90fc16U, 0xbe6e306dbe3a68aeU, 0x3ebf96413e9b573cU,
  0xbf6b99a33da5b262U, 0x3d90fc16bd788b93U, 0xbe25b262beb53b1bU, 0x3e4f1efa3ed97a21U,
  0xbf9392df3d4f1efaU, 0x3ebf96413de3d547U, 0xbe4f1efabe06a0f0U, 0x3e3a68ae3e81735dU,
  0xbf75f4c9bd4f1efaU, 0x3de3d5473cf88b93U, 0xbeaadff5bdba68aeU, 0x3e300d883edea7b4U,
  0xbf353b1bbd25b262U, 0x3e86a0f03ca5b262U, 0xbe4f1efabe300d88U, 0x3e9629a93e9b573cU,
  0xbf32a45200000000U, 0xbd25b262bcf88b93U, 0xbec4c3d43dcf1efaU, 0x3e597a213ec9f167U,
  0x3e9b573c3e25b262U, 0x3e4f1efabed97a21U, 0x3dcf1efabda5b262U, 0xbcf88b93bfa466fdU,
  0x3e81735d3e10fc16U, 0x3e25b262be44c3d4U, 0x3ec4c3d4be06a0f0U, 0xbdba68aebf56e357U,
  0x3e9629a93e86a0f0U, 0x3e300d88be44c3d4U, 0x3e300d88be788b93U, 0x3e300d88bf840a26U,
  0x3e788b933e90fc16U, 0xbc25b262be63d547U, 0x3e300d88bde3d547U, 0xbca5b262bf5ea7b4U,
  0x3e788b933e788b93U, 0x3da5b262be788b93U, 0x3eee306dbe90fc16U, 0xbcf88b93bf94de44U,
  0x3e1b573c3eaadff5U, 0x3e3a68aebe8bce83U, 0x3ef88b93be9629a9U, 0xbdf88b93bf63d547U,
  0x3e6e306d3e90fc16U, 0x3e06a0f0be63d547U, 0x3ec4c3d4bf040a26U, 0xbd788b93bf32a452U,
  0x3e3a68ae3eb00d88U, 0x3e06a0f0be8bce83U, 0x3ef88b93bef88b93U, 0x3d25b262bf01735dU,
  0x3ea084cf3ef88b93U, 0x3d25b262be300d88U, 0x3f18c072bf06a0f0U, 0xbd788b93bf06a0f0U,
  0xbd25b2623dcf1efaU, 0x3ec4c3d4befdb926U, 0x3dcf1efa3e597a21U, 0xbcf88b93bf788b93U,
  0xbdf88b93bdba68aeU, 0x3e9629a9bea5b262U, 0x3cf88b933ea5b262U, 0xbda5b262bf25b262U,
  0xbdcf1efabde3d547U, 0x3f1392dfbeaadff5U, 0xbe63d5473e9629a9U, 0xbe1b573cbf49f167U,
  0xbe3a68aebe06a0f0U, 0x3e8bce83be9629a9U, 0x3d4f1efa3e81735dU, 0x3de3d547bf3cff78U,
  0xbde3d547bdf88b93U, 0x3ec9f167be8bce83U, 0xbe25b2623e81735dU, 0xbe597a21bf231b98U,
  0xbe63d547bd25b262U, 0x3ebf9641beb00d88U, 0x3d788b933e63d547U, 0x3ca5b262bf32a452U,
  0xbe4f1efabe6e306dU, 0x3ec9f167be788b93U, 0xbdf88b933e44c3d4U, 0xbc25b262bed97a21U,
  0xbe788b93bd4f1efaU, 0x3e6e306dbebf9641U, 0xbd90fc163e9b573cU, 0xbd4f1efabed44c8eU,
  0xbe3a68ae00000000U, 0x3ebf9641be44c3d4U, 0xbe90fc163ec9f167U, 0x3cf88b93bf06a0f0U,
  0x3eee306d3dcf1efaU, 0x3e06a0f0bd788b93U, 0x3da5b262bf1392dfU, 0xbea084cfbd4f1efaU,
  0x3e9b573c3e06a0f0U, 0x3e10fc163c25b262U, 0xbd90fc16bea5b262U, 0xbdba68aebc25b262U,
  0x3ec4c3d43df88b93U, 0xbca5b262bd4f1efaU, 0x3d90fc16bf231b98U, 0xbe300d883dba68aeU,
  0x3e9b573c3dcf1efaU, 0x3d25b262be1b573cU, 0x3e788b93bf231b98U, 0xbcf88b933e1b573cU,
  0x3edea7b43e3a68aeU, 0xbd4f1efabe1b573cU, 0x3eba68aebf44c3d4U, 0xbebf9641bcf88b93U,
  0x3e44c3d43dcf1efaU, 0x3e4f1efabd90fc16U, 0x3ecf1efabf44c3d4U, 0xbe81735d3e1b573cU,
  0x3ea5b2623dba68aeU, 0x3de3d547bd4f1efaU, 0x3e788b93bf3f9641U, 0xbe81735d3e10fc16U,
  0x3e44c3d43e4f1efaU, 0x3d788b93be788b93U, 0x3eba68aebf0bce83U, 0xbdcf1efa3e1b573cU,
  0x3e788b933e81735dU, 0x3da5b262be44c3d4U, 0x3e8bce83bf10fc16U, 0xbe10fc163dcf1efaU,
  0xbe788b93be63d547U, 0xbe788b93be1b573cU, 0x3e6e306d3e6e306dU, 0x3edea7b4bf0937b9U,
  0xbda5b262be81735dU, 0xbd90fc163d4f1efaU, 0x3eb00d883e1b573cU, 0x3e9b573cbe63d547U,
  0xbebf9641bf0bce83U, 0xbd788b933d25b262U, 0x3ee902da3e8bce83U, 0x3ed97a21beaadff5U,
  0xbed97a21bea084cfU, 0xbe86a0f0bca5b262U, 0x3ef88b933e597a21U, 0x3ef35e00be81735dU,
  0xbeba68aebe90fc16U, 0xbd788b933de3d547U, 0x3ef88b933e597a21U, 0x3e86a0f0befdb926U,
  0xbedea7b4be4f1efaU, 0xbe63d5473dcf1efaU, 0x3f01735d3e8bce83U, 0x3e81735dbec4c3d4U,
  0xbeb00d88bf18c072U, 0xbd788b933de3d547U, 0x3e8bce833e3a68aeU, 0x3ee3d547bec4c3d4U,
  0xbe9b573cbe788b93U, 0xbe1b573c3e06a0f0U, 0x3ed44c8e3e788b93U, 0x3eaadff5beaadff5U,
  0xbf0bce83be788b93U, 0xbe788b933ca5b262U, 0x3ecf1efa3e90fc16U, 0x3e90fc16be1b573cU,
  0x3ec9f167bd25b262U, 0xbeaadff5be1b573cU, 0x3e300d883ca5b262U, 0xbd90fc16be81735dU,
  0x3eba68aebe9629a9U, 0xbe10fc163e06a0f0U, 0x3e81735d3d25b262U, 0xbc25b2623d90fc16U,
  0x3ef35e00be6e306dU, 0xbe788b93bd788b93U, 0x3e81735dbd90fc16U, 0x3da5b2623c25b262U,
  0x3efdb926be788b93U, 0xbeb53b1b3e10fc16U, 0x3e06a0f0bc25b262U, 0x3d25b2623cf88b93U,
  0x3ee902dabe1b573cU, 0xbed97a213df88b93U, 0x3e44c3d4bd90fc16U, 0xbdba68ae3d90fc16U,
  0x3e9b573cbe3a68aeU, 0xbe86a0f03e44c3d4U, 0x3e25b2623d4f1efaU, 0xbde3d547bd25b262U,
  0x3ef35e00be4f1efaU, 0xbe6e306d3d4f1efaU, 0x3cf88b93be25b262U, 0x3d25b2623d25b262U,
  0x3ebf9641bdcf1efaU, 0xbe10fc163de3d547U, 0x3d25b262bda5b262U, 0x3e4f1efabe3a68aeU,
  0x3ebf96413da5b262U, 0xbe44c3d43da5b262U, 0xbea084cf3dba68aeU, 0xbcf88b93U,
  0xbcf88b933e300d88U, 0x3c25b2623d90fc16U, 0xbea084cf3dba68aeU, 0x3e4f1efabe1b573cU,
  0xbd788b933e63d547U, 0xbda5b2623e06a0f0U, 0xbef35e003e9629a9U, 0x3ca5b262bc25b262U,
  0x3d25b2623e25b262U, 0x3d4f1efa3de3d547U, 0xbe9b573c3e10fc16U, 0x3e3a68aebe06a0f0U,
  0xbd25b2623e25b262U, 0xbdba68ae3e25b262U, 0xbec4c3d43e597a21U, 0x3e63d5473ca5b262U,
  0x3c25b2623e44c3d4U, 0xbdba68ae3e1b573cU, 0xbed44c8e3de3d547U, 0x3c25b262bd788b93U,
  0xbe25b2623e597a21U, 0x3dba68ae3e81735dU, 0xbe9629a93e300d88U, 0x3d4f1efabd788b93U,
  0x3ca5b2623d25b262U, 0xbca5b2623e10fc16U, 0xbedea7b43d788b93U, 0x3da5b2623e10fc16U,
  0xbca5b2623e06a0f0U, 0x3d4f1efa3d788b93U, 0xbea084cf3dba68aeU, 0x3e10fc163ca5b262U,
  0x3cf88b933e06a0f0U, 0xbde3d5473df88b93U, 0xbeee306d3e90fc16U, 0xbd25b2623ca5b262U,
  0xbf10fc16bf2d76bfU, 0xbf231b98bf475a9eU, 0xbef35e00be788b93U, 0xbf49f167bd90fc16U,
  0xbf0bce83beaadff5U, 0xbf3cff78bf735e00U, 0xbe8bce83be3a68aeU, 0xbefdb926bda5b262U,
  0xbea5b262be9b573cU, 0xbf353b1bbef35e00U, 0xbf1392dfbeb53b1bU, 0xbf3cff78be300d88U,
  0xbea084cfbe10fc16U, 0xbf353b1bbf70c736U, 0xbe9629a9be597a21U, 0xbf040a26be3a68aeU,
  0xbf0937b9bf06a0f0U, 0xbf040a26bf1dee05U, 0xbedea7b4beee306dU, 0xbf0e654c3cf88b93U,
  0xbecf1efabeba68aeU, 0xbf2adff5bf70c736U, 0xbe788b93bedea7b4U, 0xbf1dee05bd788b93U,
  0xbef88b93beb53b1bU, 0xbf37d1e5bf18c072U, 0xbea084cfbedea7b4U, 0xbf2084cf3c25b262U,
  0xbe597a21beba68aeU, 0xbf231b98bf1dee05U, 0xbe90fc16be9b573cU, 0xbefdb926be1b573cU,
  0xbf2084cfbf0937b9U, 0xbf32a452bf2adff5U, 0xbf040a26bf0bce83U, 0xbf0bce833d4f1efaU,
  0xbeb53b1bbed44c8eU, 0xbf25b262bf613e7dU, 0xbe788b93be8bce83U, 0xbf10fc16bd4f1efaU,
  0xbe3a68aebecf1efaU, 0xbf1392dfbf7b225dU, 0xbdcf1efabe63d547U, 0xbeee306dbd25b262U,
  0xbe81735dbf1392dfU, 0xbf75f4c9bf2adff5U, 0xbeaadff5bf0e654cU, 0xbf3a68aebe9629a9U,
  0xbeb00d88be06a0f0U, 0xbf8027f8bf1629a9U, 0xbeb00d88bdcf1efaU, 0xbef35e00bea084cfU,
  0xbde3d547be9629a9U, 0xbf422d0bbf422d0bU, 0xbe86a0f0beaadff5U, 0xbef88b93be9b573cU,
  0xbe4f1efabf040a26U, 0xbf6b99a3bf37d1e5U, 0xbec4c3d4bee902daU, 0xbeee306dbe63d547U,
  0xbea5b262bedea7b4U, 0xbf18c072bf4c8831U, 0xbe3a68aebe788b93U, 0xbf1392df3d25b262U,
  0xbec9f167bf18c072U, 0xbf3f9641bf4f1efaU, 0xbeaadff5becf1efaU, 0xbeba68ae3e1b573cU,
  0xbeee306dbf300d88U, 0xbf422d0bbf5ea7b4U, 0xbe86a0f0be597a21U, 0xbf231b98bdf88b93U,
  0xbf0937b9bea5b262U, 0xbf1b573cbf666c10U, 0xbf0937b9beaadff5U, 0xbf49f167bebf9641U,
  0xbefdb926bea084cfU, 0xbef88b93bf6902daU, 0xbefdb926be4f1efaU, 0xbf01735dbea084cfU,
  0xbef88b93be25b262U, 0xbf51b5c4bf32a452U, 0xbf040a26be10fc16U, 0xbeaadff53c25b262U,
  0xbe597a21becf1efaU, 0xbf37d1e5bf28492cU, 0xbe44c3d4bed97a21U, 0xbf01735dbe597a21U,
  0xbe8bce83bedea7b4U, 0xbf231b98bf2d76bfU, 0xbe81735dbeaadff5U, 0xbf1dee05be300d88U,
  0xbee3d547beb53b1bU, 0xbf1392dfbf840a26U, 0xbed97a21befdb926U, 0xbf1629a93d788b93U,
  0xbf0bce83beee306dU, 0xbf0937b9bf25b262U, 0xbe788b93bf040a26U, 0xbf2084cfbe86a0f0U,
  0xbf040a26bedea7b4U, 0xbf28492cbf2084cfU, 0xbe90fc16bef88b93U, 0xbe4f1efabe9b573cU,
  0xbf1b573cbf3a68aeU, 0xbf70c736bf544c8eU, 0xbdba68aebedea7b4U, 0xbf01735dbdcf1efaU,
  0xbe25b262bf1b573cU, 0xbf63d547bf475a9eU, 0xbe300d88bf1629a9U, 0xbed44c8ebe81735dU,
  0xbe9b573cbef35e00U, 0xbf735e00bf28492cU, 0xbe597a21be86a0f0U, 0xbee3d5473e3a68aeU,
  0xbe6e306dbf01735dU, 0xbf56e357bf1392dfU, 0xbde3d547bf0937b9U, 0xbf300d88bd25b262U,
  0xbdf88b93bef35e00U, 0xbf544c8ebf3a68aeU, 0xbea5b262be300d88U, 0xbf1b573c3e25b262U,
  0xbef35e00bee902daU, 0xbf788b93bf32a452U, 0xbec4c3d4bef88b93U, 0xbeba68aebde3d547U,
  0xbe10fc16bef88b93U, 0xbf3a68aebf25b262U, 0x3d788b93be788b93U, 0xbec9f167bc25b262U,
  0xbeba68aebec9f167U, 0xbf5ea7b4bf6e306dU, 0xbe6e306dU, 0xbf422d0bbdcf1efaU,
  0xbe10fc16bf2d76bfU, 0xbf8fb0b1bf422d0bU, 0xbcf88b93bed97a21U, 0xbf18c072be9629a9U,
  0xbeb53b1bbefdb926U, 0xbf613e7dbf25b262U, 0xbe597a21bf1392dfU, 0xbf040a26be4f1efaU,
  0xbea5b262bea5b262U, 0xbefdb926bf8a831eU, 0xbed44c8ebf1b573cU, 0xbf01735dbe86a0f0U,
  0xbf0937b9bee902daU, 0xbf040a26bf788b93U, 0xbe3a68aebe1b573cU, 0xbf1629a93df88b93U,
  0xbec4c3d4be6e306dU, 0xbf613e7dbf01735dU, 0xbea5b262bef88b93U, 0xbf2d76bfbdba68aeU,
  0xbee902dabeee306dU, 0xbf613e7dbf2adff5U, 0xbef88b93be300d88U, 0xbf1b573cbe3a68aeU,
  0xbecf1efabe90fc16U, 0xbf0bce83bf300d88U, 0xbe81735dbea084cfU, 0xbf18c0723d25b262U,
  0xbe81735dbed97a21U, 0xbf6b99a3bf597a21U, 0xbe81735dbedea7b4U, 0xbef35e00bdf88b93U,
  0xbea5b262bf18c072U, 0xbf3cff78bf8027f8U, 0xbdf88b93be9629a9U, 0xbec4c3d43df88b93U,
  0xbe44c3d4beb00d88U, 0xbf2084cfbf7b225dU, 0xbea084cfbe81735dU, 0xbe6e306dbe4f1efaU,
  0xbee3d547bf3cff78U, 0xbf25b262bf1629a9U, 0xbde3d547beaadff5U, 0xbef35e00be44c3d4U,
  0xbe81735dbecf1efaU, 0xbf040a26bf788b93U, 0xbebf9641bea5b262U, 0xbf0bce83be86a0f0U,
  0xbf01735dbea084cfU, 0xbf3a68aebf3a68aeU, 0xbecf1efabeba68aeU, 0xbea5b262bca5b262U,
  0xbe25b262bf1392dfU, 0xbf4c8831bf49f167U, 0xbf1392dfbf0937b9U, 0xbf32a452bc25b262U,
  0xbed97a21bf1629a9U, 0xbf28492cbf666c10U, 0xbea5b262bdf88b93U, 0xbe9b573cbd90fc16U,
  0xbf01735dbe1b573cU, 0xbf32a452bf3cff78U, 0xbe44c3d4bde3d547U, 0xbf25b262bea5b262U,
  0xbee902dabe8bce83U, 0xbf1b573cbf788b93U, 0xbef35e00be9629a9U, 0xbf18c072bd788b93U,
  0xbee3d547bf0937b9U, 0xbf5c10eabf2adff5U, 0xbdcf1efabeba68aeU, 0xbef88b93bda5b262U,
  0xbec4c3d4bf2084cfU, 0xbf475a9ebf2d76bfU, 0xbe86a0f0be25b262U, 0xbf1b573c00000000U,
  0xbef88b93bebf9641U, 0xbf70c736bf5c10eaU, 0xbdf88b93be86a0f0U, 0xbefdb926be4f1efaU,
  0xbf06a0f0bf040a26U, 0xbf4f1efabf735e00U, 0xbe25b262bedea7b4U, 0xbed44c8ebe10fc16U,
  0xbed44c8ebe10fc16U, 0xbf3f9641bf3f9641U, 0xbec4c3d4bf0e654cU, 0xbf040a26bc25b262U,
  0xbed97a21becf1efaU, 0xbf6e306dbf3f9641U, 0xbe06a0f0bec4c3d4U, 0xbeaadff5be9629a9U,
  0xbe1b573cbeb53b1bU, 0xbf70c736bf1392dfU, 0xbde3d547bf040a26U, 0xbf01735dbe9629a9U,
  0xbdcf1efabe6e306dU, 0xbf3a68aebf4f1efaU, 0xbd25b262bed97a21U, 0xbf10fc16bde3d547U,
  0xbeb53b1bbeee306dU, 0xbf49f167bf6b99a3U, 0xbe9b573cbeee306dU, 0xbf3a68aebe6e306dU,
  0xbe63d547bef88b93U, 0xbf56e357bf3a68aeU, 0xbe63d547beba68aeU, 0xbf040a263d788b93U,
  0xbe6e306dbf1629a9U, 0xbf70c736bf2adff5U, 0xbe86a0f0bf06a0f0U, 0xbe597a21bdcf1efaU,
  0xbf10fc16bf040a26U, 0xbf5ea7b4bf2084cfU, 0xbd25b262beb53b1bU, 0xbf18c072be597a21U,
  0xbf18c072bea084cfU, 0xbf422d0bbf86a0f0U, 0xbe6e306dbefdb926U, 0xbeee306dbe300d88U,
  0xbe86a0f0bef35e00U, 0xbefdb926bf82bec1U, 0xbf0e654cbebf9641U, 0xbf32a452be1b573cU,
  0xbedea7b4beba68aeU, 0xbf613e7dbf597a21U, 0xbe81735dbe06a0f0U, 0xbf040a26be81735dU,
  0xbe8bce83bec4c3d4U, 0xbf0e654cbf1629a9U, 0xbed44c8ebedea7b4U, 0xbf10fc163df88b93U,
  0xbf040a26bef88b93U, 0xbf28492cbf300d88U, 0xbed97a21bebf9641U, 0xbecf1efabe86a0f0U,
  0xbefdb926bf1b573cU, 0xbf25b262bf300d88U, 0xbef88b93bed44c8eU, 0xbf0e654cbd90fc16U,
  0xbf040a26beba68aeU, 0xbf2adff5bf353b1bU, 0xbe10fc16be25b262U, 0xbed44c8ebe86a0f0U,
  0xbea5b262beba68aeU, 0xbf37d1e5bf51b5c4U, 0xbe300d88beb00d88U, 0xbeaadff5bca5b262U,
  0xbf1dee05bf18c072U, 0xbf788b93bf49f167U, 0xbe788b93bf1392dfU, 0xbea5b26200000000U,
  0xbf10fc16bec4c3d4U, 0xbf0937b9bf6b99a3U, 0xbe81735dbe300d88U, 0xbf1392dfbe9629a9U,
  0xbee3d547bf1392dfU, 0xbf56e357bf2d76bfU, 0xbeee306dbeaadff5U, 0xbf3cff783dba68aeU,
  0xbecf1efabe9b573cU, 0xbf3cff78bf5ea7b4U, 0xbe4f1efabed44c8eU, 0xbef35e00bca5b262U,
  0xbe3a68aebed97a21U, 0xbf70c736bf735e00U, 0xbf0937b9bebf9641U, 0xbebf9641be3a68aeU,
  0xbeee306dbebf9641U, 0xbf01735dbf49f167U, 0xbe9629a9be597a21U, 0xbebf9641beba68aeU,
  0xbe8bce83be44c3d4U, 0xbf0e654cbf44c3d4U, 0xbe4f1efabed44c8eU, 0xbf28492c3ca5b262U,
  0xbed97a21beaadff5U, 0xbf2084cfbf231b98U, 0xbdf88b93bee3d547U, 0xbf353b1bbea5b262U,
  0xbe597a21bf32a452U, 0xbf475a9ebf666c10U, 0xbec4c3d4be597a21U, 0xbebf9641bd788b93U,
  0xbf231b98beba68aeU, 0xbf3a68aebf5c10eaU, 0xbeee306dbe63d547U, 0xbf06a0f0be90fc16U,
  0xbe86a0f0bf040a26U, 0xbee3d547bf788b93U, 0xbeb53b1bbe788b93U, 0xbf353b1bbe6e306dU,
  0xbf040a26bdf88b93U, 0xbf56e357bf5c10eaU, 0xbeba68aebef88b93U, 0xbf2adff5beb53b1bU,
  0xbef35e00be3a68aeU, 0xbf56e357bf0e654cU, 0xbf0e654cbef88b93U, 0xbecf1efabe788b93U,
  0xbe8bce83be8bce83U, 0xbf2d76bfbf353b1bU, 0xbee902dabee902daU, 0xbeaadff5bebf9641U,
  0xbee902dabe81735dU, 0xbf4c8831bf4c8831U, 0xbed44c8ebe300d88U, 0xbeaadff5beb00d88U,
  0xbebf9641beb53b1bU, 0xbf3cff78bf6902daU, 0xbeba68aebe597a21U, 0xbe9b573cbe1b573cU,
  0xbf0937b9bf0937b9U, 0xbf01735dbf544c8eU, 0xbee902dabed44c8eU, 0xbf37d1e53cf88b93U,
  0xbe9629a9bf422d0bU, 0xbf32a452bf70c736U, 0xbeba68aebe597a21U, 0xbe9629a9bca5b262U,
  0xbf040a26becf1efaU, 0xbf353b1bbf75f4c9U, 0xbe9b573cbed97a21U, 0xbee902da3c25b262U,
  0xbeee306dbee902daU, 0xbea5b262bf85558bU, 0xbf231b98be3a68aeU, 0xbf25b262bea084cfU,
  0xbee3d547be25b262U, 0xbee902dabf353b1bU, 0xbf0937b9bef35e00U, 0xbf18c072be25b262U,
  0xbf18c072befdb926U, 0xbf3a68aebf475a9eU, 0xbf28492cbea5b262U, 0xbebf9641bea084cfU,
  0xbe9b573cbe06a0f0U, 0xbf422d0bbf51b5c4U, 0xbf2084cfbe63d547U, 0xbf01735d00000000U,
  0xbf32a452be1b573cU, 0xbf2d76bfbf735e00U, 0xbf06a0f0be8bce83U, 0xbe9629a9bedea7b4U,
  0xbefdb926bea084cfU, 0xbf01735dbf81735dU, 0xbf1629a9bed97a21U, 0xbf18c072bec9f167U,
  0xbf0937b9be63d547U, 0xbf040a26bf37d1e5U, 0xbebf9641be6e306dU, 0xbee3d547bc25b262U,
  0xbef35e00befdb926U, 0xbf63d547bf544c8eU, 0xbf10fc16beb53b1bU, 0xbe8bce83be8bce83U,
  0xbf0937b9bee3d547U, 0xbf49f167bf788b93U, 0xbed97a21bea084cfU, 0xbf0e654cbe8bce83U,
  0xbf2adff5bf0e654cU, 0xbf1b573cbf44c3d4U, 0xbf18c072bebf9641U, 0xbeaadff5bde3d547U,
  0xbec4c3d4be300d88U, 0xbf3a68aebf8937b9U, 0xbedea7b4be300d88U, 0xbeba68aebe9b573cU,
  0xbf0e654cbe86a0f0U, 0xbf28492cbf3a68aeU, 0xbeb53b1bbde3d547U, 0xbf37d1e5be6e306dU,
  0xbee902dabed97a21U, 0xbf4f1efabf1dee05U, 0xbedea7b4bedea7b4U, 0xbeaadff5bde3d547U,
  0xbe4f1efabea084cfU, 0xbf422d0bbf422d0bU, 0xbe10fc16bef35e00U, 0xbeba68ae3d4f1efaU,
  0xbf0937b9bf10fc16U, 0xbf475a9ebf82bec1U, 0xbed44c8ebf10fc16U, 0xbe9629a9be9629a9U,
  0xbeba68aebe86a0f0U, 0xbf4c8831bf422d0bU, 0xbed44c8ebe6e306dU, 0xbf231b98be3a68aeU,
  0xbec4c3d4bee902daU, 0xbf5ea7b4bf3a68aeU, 0xbea084cfbf1392dfU, 0xbea084cf3d4f1efaU,
  0xbf231b98bf300d88U, 0xbf353b1bbf7db926U, 0xbe86a0f0be9b573cU, 0xbe8bce83be44c3d4U,
  0xbec9f167bf2084cfU, 0xbf613e7dbf25b262U, 0xbe4f1efabef88b93U, 0xbf44c3d4bde3d547U,
  0xbe597a21be8bce83U, 0xbf544c8ebf8937b9U, 0xbeb53b1bbe300d88U, 0xbf0bce833d90fc16U,
  0xbe25b262bf1629a9U, 0xbf37d1e5bf300d88U, 0xbeba68aebf040a26U, 0xbf1dee053de3d547U,
  0xbe06a0f0befdb926U, 0xbf666c10bf44c3d4U, 0xbee3d547be44c3d4U, 0xbf1dee05bda5b262U,
  0xbec4c3d4be6e306dU, 0xbf44c3d4bf2d76bfU, 0xbde3d547bdf88b93U, 0xbf1dee05beaadff5U,
  0xbea084cfbec9f167U, 0xbf3a68aebf49f167U, 0xbe8bce83bec4c3d4U, 0xbebf9641bea084cfU,
  0xbeee306dbf1629a9U, 0xbf231b98bf70c736U, 0xbe1b573cU, 0xbeba68aebe90fc16U,
  0xbe597a21bf040a26U, 0xbf422d0bbf3cff78U, 0xbea5b262bee3d547U, 0xbed44c8ebd90fc16U,
  0xbeee306dbef35e00U, 0xbf70c736bf2084cfU, 0xbed44c8ebe90fc16U, 0xbefdb926be10fc16U,
  0xbf3a68aebf231b98U, 0xbeee306dbf840a26U, 0xbf32a452beb00d88U, 0xbeba68aebe9b573cU,
  0xbeba68aebeaadff5U, 0xbeee306dbf613e7dU, 0xbedea7b4beaadff5U, 0xbec9f167be90fc16U,
  0xbf1629a9be1b573cU, 0xbf544c8ebf2adff5U, 0xbe9629a9be86a0f0U, 0xbef88b93be300d88U,
  0xbf1392dfbe597a21U, 0xbf49f167bf353b1bU, 0xbef88b93be597a21U, 0xbf300d88bc25b262U,
  0xbef88b93bed97a21U, 0xbeee306dbf51b5c4U, 0xbea084cfbea084cfU, 0xbef88b93be9629a9U,
  0xbeb00d88beb00d88U, 0xbf32a452bf2adff5U, 0xbe4f1efabf0937b9U, 0xbebf9641bd25b262U,
  0xbf1b573cbef88b93U, 0xbf2adff5bf4f1efaU, 0xbf1629a9be3a68aeU, 0xbeee306d3c25b262U,
  0xbef35e00bf3f9641U, 0xbf25b262bf300d88U, 0xbf1b573cbde3d547U, 0xbf28492c3d25b262U,
  0xbf5c10eabecf1efaU, 0xbf4c8831bf5c10eaU, 0xbef88b93bed97a21U, 0xbecf1efabebf9641U,
  0xbef35e00bef35e00U, 0xbebf9641bf75f4c9U, 0xbf422d0bbec4c3d4U, 0xbecf1efabd25b262U,
  0xbf25b262bea084cfU, 0xbf51b5c4bf6902daU, 0xbf231b98bf040a26U, 0xbef35e00beb53b1bU,
  0xbee902dabec4c3d4U, 0xbf01735dbf0937b9U, 0xbee3d547bef88b93U, 0xbf1b573cbdcf1efaU,
  0xbf28492cbe4f1efaU, 0xbf597a21bf2084cfU, 0xbf040a26be597a21U, 0xbf2d76bfbea5b262U,
  0xbf1b573cbe90fc16U, 0xbeee306dbf70c736U, 0xbed44c8ebe597a21U, 0xbebf9641bee3d547U,
  0xbf01735dbe10fc16U, 0xbf51b5c4bf6e306dU, 0xbf06a0f0bee3d547U, 0xbf353b1bbdcf1efaU,
  0xbf3a68aebe1b573cU, 0xbf10fc16bf32a452U, 0xbf231b98bf06a0f0U, 0xbee902dabe86a0f0U,
  0xbf1629a9befdb926U, 0xbf1392dfbf1dee05U, 0xbeb00d88bec9f167U, 0xbe788b93beb00d88U,
  0xbf2084cfbeee306dU, 0xbf56e357bf422d0bU, 0xbea084cfbf1392dfU, 0xbea5b262bda5b262U,
  0xbedea7b4bf01735dU, 0xbf422d0bbf544c8eU, 0xbf32a452be63d547U, 0xbefdb926bebf9641U,
  0xbeb53b1bbe788b93U, 0xbef35e00bf7b225dU, 0xbf0e654cbecf1efaU, 0xbf25b262bc25b262U,
  0xbf1dee05be6e306dU, 0xbf353b1bbf4f1efaU, 0xbf1392dfbf06a0f0U, 0xbeb00d88be25b262U,
  0xbe25b262be788b93U, 0xbf231b98bf70c736U, 0xbed97a21be300d88U, 0xbf18c072be90fc16U,
  0xbf231b98bef35e00U, 0xbebf9641bf2d76bfU, 0xbf040a26be3a68aeU, 0xbf2d76bfbebf9641U,
  0xbe8bce83bee3d547U, 0xbf51b5c4bf597a21U, 0xbf06a0f0be44c3d4U, 0xbea084cfbe788b93U,
  0xbf2084cfbeba68aeU, 0xbf06a0f0bf6b99a3U, 0xbed44c8ebdf88b93U, 0xbf10fc16bec4c3d4U,
  0xbedea7b4bf06a0f0U, 0xbf6e306dbf18c072U, 0xbea084cfbec9f167U, 0xbeb53b1bbeb53b1bU,
  0xbf4f1efabec4c3d4U, 0xbf3f9641bf422d0bU, 0xbef35e00bea084cfU, 0xbf1629a9bde3d547U,
  0xbf01735dbf0bce83U, 0xbf1b573cbf25b262U, 0xbec4c3d4be6e306dU, 0xbf0937b9bd25b262U,
  0xbe90fc16bf10fc16U, 0xbf3cff78bf735e00U, 0xbeba68aebe63d547U, 0xbf28492cbe597a21U,
  0xbec4c3d4bebf9641U, 0xbf4f1efabf56e357U, 0xbf06a0f0bea084cfU, 0xbf3a68aebe25b262U,
  0xbda5b262bee902daU, 0xbf1392dfbf18c072U, 0xbd90fc16be25b262U, 0xbf1629a9be3a68aeU,
  0xbed44c8ebec9f167U, 0xbf56e357bf1dee05U, 0xbe788b93be788b93U, 0xbf2adff5bda5b262U,
  0xbeee306dbf0e654cU, 0xbf597a21bf231b98U, 0xbe6e306dbe8bce83U, 0xbf32a452bca5b262U,
  0xbe8bce83be3a68aeU, 0xbf5c10eabf2adff5U, 0xbed44c8ebe86a0f0U, 0xbf25b262be788b93U,
  0xbe300d88bf1629a9U, 0xbf70c736bf2adff5U, 0xbe8bce83beee306dU, 0xbeb53b1b3d25b262U,
  0xbecf1efabecf1efaU, 0xbf51b5c4bf6902daU, 0xbec4c3d4bf0937b9U, 0xbeba68aebea084cfU,
  0xbf040a26beaadff5U, 0xbf0937b9bf6b99a3U, 0xbec9f167bf1392dfU, 0xbeba68aebe44c3d4U,
  0xbe63d547beb00d88U, 0xbf70c736bf597a21U, 0xbe8bce83be81735dU, 0xbee3d547bdcf1efaU,
  0xbe3a68aebef88b93U, 0xbf2084cfbf475a9eU, 0xbe9629a9bed97a21U, 0xbf18c072beaadff5U,
  0xbec4c3d4beb00d88U, 0xbf3cff78bf3cff78U, 0xbedea7b4bf01735dU, 0xbf28492cbd90fc16U,
  0xbe597a21beb53b1bU, 0xbf4c8831bf613e7dU, 0xbe3a68aebecf1efaU, 0xbe9629a9be63d547U,
  0xbeaadff5be63d547U, 0xbf63d547bf3a68aeU, 0xbe81735dbf0e654cU, 0xbf06a0f03de3d547U,
  0xbf01735dbee3d547U, 0xbefdb926bf1dee05U, 0xbdcf1efabf0e654cU, 0xbe9b573c3ca5b262U,
  0xbe44c3d4bea084cfU, 0xbf4f1efabf475a9eU, 0xbe63d547bea5b262U, 0xbf2adff5bdf88b93U,
  0xbea5b262bf3f9641U, 0xbf70c736bf840a26U, 0xbe10fc16be8bce83U, 0xbf37d1e5bd90fc16U,
  0xbed44c8ebf1392dfU, 0xbf49f167bf2adff5U, 0xbe25b262bf1392dfU, 0xbf01735dbe25b262U,
  0xbee3d547bed97a21U, 0xbf6e306dbf353b1bU, 0xbed97a21be86a0f0U, 0xbeba68aebe3a68aeU,
  0xbf0bce83bf0937b9U, 0xbf597a21bf4f1efaU, 0xbd25b262bec4c3d4U, 0xbf475a9ebca5b262U,
  0xbe4f1efabef35e00U, 0xbf6902dabf3cff78U, 0xbe06a0f0be90fc16U, 0xbef88b93be597a21U,
  0xbf01735dbeb00d88U, 0xbf6902dabf1629a9U, 0xbe9b573cbe90fc16U, 0xbf06a0f0bcf88b93U,
  0xbe10fc16bf0e654cU, 0xbf56e357bf231b98U, 0xbe4f1efabeee306dU, 0xbef88b93be9629a9U,
  0xbeb00d88bed44c8eU, 0xbf597a21bf25b262U, 0xbeb00d88bea5b262U, 0xbecf1efabe1b573cU,
  0xbde3d547bf3f9641U, 0xbf6e306dbf32a452U, 0xbd90fc16be86a0f0U, 0xbf231b983d4f1efaU,
  0xbf06a0f0bf040a26U, 0xbf3a68aebf32a452U, 0xbd90fc16bec9f167U, 0xbf3cff78bda5b262U,
  0xbeba68aebec4c3d4U, 0xbf2adff5bf44c3d4U, 0xbe8bce83be597a21U, 0xbf2d76bfbda5b262U,
  0xbee3d547be86a0f0U, 0xbf1b573cbf597a21U, 0xbec4c3d4bf040a26U, 0xbea5b262bda5b262U,
  0xbe9b573cbea5b262U, 0xbf1629a9bf231b98U, 0xbee902dabe63d547U, 0xbf2d76bf3c25b262U,
  0xbe90fc16bed44c8eU, 0xbf613e7dbf6b99a3U, 0xbea084cfbef88b93U, 0xbee902dabdcf1efaU,
  0xbe81735dbdf88b93U, 0xbf18c072bf56e357U, 0xbde3d547bd25b262U, 0xbf2d76bfbe44c3d4U,
  0xbe597a21beaadff5U, 0xbf735e00bf81735dU, 0xbecf1efabf1392dfU, 0xbf0e654cbdba68aeU,
  0xbe8bce83bed97a21U, 0xbf0937b9bf44c3d4U, 0xbe25b262bea5b262U, 0xbe9629a9be6e306dU,
  0xbe9629a9bf231b98U, 0xbf422d0bbf63d547U, 0xbdcf1efabe25b262U, 0xbf0e654cbe90fc16U,
  0xbf231b98bf353b1bU, 0xbf25b262bf6902daU, 0xbe9629a9bee3d547U, 0xbebf9641be44c3d4U,
  0xbf25b262bea084cfU, 0xbf3f9641bf75f4c9U, 0xbf4f1efabefdb926U, 0xbebf9641be597a21U,
  0xbf0bce83bde3d547U, 0xbf28492cbf5ea7b4U, 0xbecf1efabeee306dU, 0xbf0937b9bed44c8eU,
  0xbf231b98bee3d547U, 0xbf18c072bf544c8eU, 0xbf2d76bfbe788b93U, 0xbed97a21bec9f167U,
  0xbef35e00bea084cfU, 0xbf25b262bf544c8eU, 0xbea5b262bea5b262U, 0xbe9629a9be788b93U,
  0xbedea7b4be788b93U, 0xbee3d547bf3a68aeU, 0xbe86a0f0bee902daU, 0xbf231b98beba68aeU,
  0xbed44c8ebf10fc16U, 0xbf2d76bfbf3a68aeU, 0xbe44c3d4bf231b98U, 0xbec4c3d4bca5b262U,
  0xbf0e654cbe788b93U, 0xbf353b1bbf63d547U, 0xbf1629a9be25b262U, 0xbedea7b4bed44c8eU,
  0xbf18c072bf2084cfU, 0xbf231b98bf666c10U, 0xbf37d1e5be90fc16U, 0xbeee306dbec9f167U,
  0xbf37d1e5bed44c8eU, 0xbf7db926bf2adff5U, 0xbebf9641beba68aeU, 0xbeaadff5beaadff5U,
  0xbe8bce83bf25b262U, 0xbf1b573cbf70c736U, 0xbecf1efabf06a0f0U, 0xbf1b573cbca5b262U,
  0xbeba68aebe9629a9U, 0xbf51b5c4bf666c10U, 0xbe10fc16bf040a26U, 0xbec4c3d4bd25b262U,
  0xbe9629a9bf06a0f0U, 0xbf6e306dbedea7b4U, 0xbe6e306dbe06a0f0U, 0xbf25b262be06a0f0U,
  0xbe81735dbe10fc16U, 0xbf4f1efabf2d76bfU, 0xbe9629a9bf0937b9U, 0xbf25b262be25b262U,
  0xbeaadff5bec4c3d4U, 0xbf6e306dbf3cff78U, 0xbe8bce83bd25b262U, 0xbf1b573cbeaadff5U,
  0xbe788b93be90fc16U, 0xbf353b1bbf3a68aeU, 0xbe6e306dbee3d547U, 0xbf0937b93ca5b262U,
  0xbecf1efabecf1efaU, 0xbf1392dfbf6902daU, 0xbdba68aebea084cfU, 0xbf28492c3c25b262U,
  0xbeaadff5bf300d88U, 0xbf63d547bf0bce83U, 0xbe81735dbeee306dU, 0xbeb53b1b3de3d547U,
  0xbea084cfbf01735dU, 0xbf32a452bf613e7dU, 0xbe788b93beaadff5U, 0xbefdb926be300d88U,
  0xbf188423be9b8dbcU, 0x3d921cfcbe17e152U, 0xbe5b1abbbe1ff32aU, 0x3f29ec59be8ce0dcU,
  0xbf436cf7bf5209dfU, 0xbf4a2bc7bf4d6765U, 0xbf4881abbf3f8521U, 0xbf40b839bf48b519U,
  0xbf353deebf476637U, 0xbf3dc7bcbf3c31abU, 0xbf471389bf44a6ecU, 0xbf4451f9bf4604b8U,
  0xbf4057c1bf50b31aU, 0xbf45a67ebf4bb82fU, 0xbf4724bcbf42bbe7U,
};


ai_handle g_network_weights_table[1 + 2] = {
  AI_HANDLE_PTR(AI_MAGIC_MARKER),
  AI_HANDLE_PTR(s_network_weights_array_u64),
  AI_HANDLE_PTR(AI_MAGIC_MARKER),
};

